{
  "version": "1.0",
  "truncation": null,
  "padding": null,
  "added_tokens": [
    {
      "id": 0,
      "content": "<|endoftext|>",
      "single_word": false,
      "lstrip": false,
      "rstrip": false,
      "normalized": false,
      "special": true
    },
    {
      "id": 1,
      "content": "<|im_start|>",
      "single_word": false,
      "lstrip": false,
      "rstrip": false,
      "normalized": false,
      "special": true
    },
    {
      "id": 2,
      "content": "<|im_end|>",
      "single_word": false,
      "lstrip": false,
      "rstrip": false,
      "normalized": false,
      "special": true
    },
    {
      "id": 3,
      "content": "<think>",
      "single_word": false,
      "lstrip": false,
      "rstrip": false,
      "normalized": false,
      "special": true
    },
    {
      "id": 4,
      "content": "</think>",
      "single_word": false,
      "lstrip": false,
      "rstrip": false,
      "normalized": false,
      "special": true
    }
  ],
  "normalizer": null,
  "pre_tokenizer": {
    "type": "Sequence",
    "pretokenizers": [
      {
        "type": "Digits",
        "individual_digits": true
      },
      {
        "type": "ByteLevel",
        "add_prefix_space": false,
        "trim_offsets": true,
        "use_regex": true
      }
    ]
  },
  "post_processor": {
    "type": "ByteLevel",
    "add_prefix_space": true,
    "trim_offsets": false,
    "use_regex": true
  },
  "decoder": {
    "type": "ByteLevel",
    "add_prefix_space": true,
    "trim_offsets": true,
    "use_regex": true
  },
  "model": {
    "type": "BPE",
    "dropout": null,
    "unk_token": null,
    "continuing_subword_prefix": null,
    "end_of_word_suffix": null,
    "fuse_unk": false,
    "byte_fallback": false,
    "ignore_merges": false,
    "vocab": {
      "<|endoftext|>": 0,
      "<|im_start|>": 1,
      "<|im_end|>": 2,
      "<think>": 3,
      "</think>": 4,
      "!": 5,
      "\"": 6,
      "#": 7,
      "$": 8,
      "%": 9,
      "&": 10,
      "'": 11,
      "(": 12,
      ")": 13,
      "*": 14,
      "+": 15,
      ",": 16,
      "-": 17,
      ".": 18,
      "/": 19,
      "0": 20,
      "1": 21,
      "2": 22,
      "3": 23,
      "4": 24,
      "5": 25,
      "6": 26,
      "7": 27,
      "8": 28,
      "9": 29,
      ":": 30,
      ";": 31,
      "<": 32,
      "=": 33,
      ">": 34,
      "?": 35,
      "@": 36,
      "A": 37,
      "B": 38,
      "C": 39,
      "D": 40,
      "E": 41,
      "F": 42,
      "G": 43,
      "H": 44,
      "I": 45,
      "J": 46,
      "K": 47,
      "L": 48,
      "M": 49,
      "N": 50,
      "O": 51,
      "P": 52,
      "Q": 53,
      "R": 54,
      "S": 55,
      "T": 56,
      "U": 57,
      "V": 58,
      "W": 59,
      "X": 60,
      "Y": 61,
      "Z": 62,
      "[": 63,
      "\\": 64,
      "]": 65,
      "^": 66,
      "_": 67,
      "`": 68,
      "a": 69,
      "b": 70,
      "c": 71,
      "d": 72,
      "e": 73,
      "f": 74,
      "g": 75,
      "h": 76,
      "i": 77,
      "j": 78,
      "k": 79,
      "l": 80,
      "m": 81,
      "n": 82,
      "o": 83,
      "p": 84,
      "q": 85,
      "r": 86,
      "s": 87,
      "t": 88,
      "u": 89,
      "v": 90,
      "w": 91,
      "x": 92,
      "y": 93,
      "z": 94,
      "{": 95,
      "|": 96,
      "}": 97,
      "~": 98,
      "¡": 99,
      "¢": 100,
      "£": 101,
      "¤": 102,
      "¥": 103,
      "¦": 104,
      "§": 105,
      "¨": 106,
      "©": 107,
      "ª": 108,
      "«": 109,
      "¬": 110,
      "®": 111,
      "¯": 112,
      "°": 113,
      "±": 114,
      "²": 115,
      "³": 116,
      "´": 117,
      "µ": 118,
      "¶": 119,
      "·": 120,
      "¸": 121,
      "¹": 122,
      "º": 123,
      "»": 124,
      "¼": 125,
      "½": 126,
      "¾": 127,
      "¿": 128,
      "À": 129,
      "Á": 130,
      "Â": 131,
      "Ã": 132,
      "Ä": 133,
      "Å": 134,
      "Æ": 135,
      "Ç": 136,
      "È": 137,
      "É": 138,
      "Ê": 139,
      "Ë": 140,
      "Ì": 141,
      "Í": 142,
      "Î": 143,
      "Ï": 144,
      "Ð": 145,
      "Ñ": 146,
      "Ò": 147,
      "Ó": 148,
      "Ô": 149,
      "Õ": 150,
      "Ö": 151,
      "×": 152,
      "Ø": 153,
      "Ù": 154,
      "Ú": 155,
      "Û": 156,
      "Ü": 157,
      "Ý": 158,
      "Þ": 159,
      "ß": 160,
      "à": 161,
      "á": 162,
      "â": 163,
      "ã": 164,
      "ä": 165,
      "å": 166,
      "æ": 167,
      "ç": 168,
      "è": 169,
      "é": 170,
      "ê": 171,
      "ë": 172,
      "ì": 173,
      "í": 174,
      "î": 175,
      "ï": 176,
      "ð": 177,
      "ñ": 178,
      "ò": 179,
      "ó": 180,
      "ô": 181,
      "õ": 182,
      "ö": 183,
      "÷": 184,
      "ø": 185,
      "ù": 186,
      "ú": 187,
      "û": 188,
      "ü": 189,
      "ý": 190,
      "þ": 191,
      "ÿ": 192,
      "Ā": 193,
      "ā": 194,
      "Ă": 195,
      "ă": 196,
      "Ą": 197,
      "ą": 198,
      "Ć": 199,
      "ć": 200,
      "Ĉ": 201,
      "ĉ": 202,
      "Ċ": 203,
      "ċ": 204,
      "Č": 205,
      "č": 206,
      "Ď": 207,
      "ď": 208,
      "Đ": 209,
      "đ": 210,
      "Ē": 211,
      "ē": 212,
      "Ĕ": 213,
      "ĕ": 214,
      "Ė": 215,
      "ė": 216,
      "Ę": 217,
      "ę": 218,
      "Ě": 219,
      "ě": 220,
      "Ĝ": 221,
      "ĝ": 222,
      "Ğ": 223,
      "ğ": 224,
      "Ġ": 225,
      "ġ": 226,
      "Ģ": 227,
      "ģ": 228,
      "Ĥ": 229,
      "ĥ": 230,
      "Ħ": 231,
      "ħ": 232,
      "Ĩ": 233,
      "ĩ": 234,
      "Ī": 235,
      "ī": 236,
      "Ĭ": 237,
      "ĭ": 238,
      "Į": 239,
      "į": 240,
      "İ": 241,
      "ı": 242,
      "Ĳ": 243,
      "ĳ": 244,
      "Ĵ": 245,
      "ĵ": 246,
      "Ķ": 247,
      "ķ": 248,
      "ĸ": 249,
      "Ĺ": 250,
      "ĺ": 251,
      "Ļ": 252,
      "ļ": 253,
      "Ľ": 254,
      "ľ": 255,
      "Ŀ": 256,
      "ŀ": 257,
      "Ł": 258,
      "ł": 259,
      "Ń": 260,
      "Ġd": 261,
      "es": 262,
      "Ã©": 263,
      "Ġl": 264,
      "en": 265,
      "on": 266,
      "Ġp": 267,
      "Ġde": 268,
      "Ġc": 269,
      "Ġs": 270,
      "an": 271,
      "re": 272,
      "ou": 273,
      "Ġa": 274,
      "er": 275,
      "ti": 276,
      "qu": 277,
      "ai": 278,
      "ent": 279,
      "et": 280,
      "in": 281,
      "Ġm": 282,
      "is": 283,
      "le": 284,
      "ar": 285,
      "Ġla": 286,
      "un": 287,
      "te": 288,
      "ur": 289,
      "Ġqu": 290,
      "or": 291,
      "Ġt": 292,
      "Ġle": 293,
      "Ġet": 294,
      "ĠÃ": 295,
      "Ġf": 296,
      "tion": 297,
      "âĢ": 298,
      "it": 299,
      "Ġn": 300,
      "Ġv": 301,
      "il": 302,
      "âĢĻ": 303,
      "Ġun": 304,
      "om": 305,
      "ĠÃł": 306,
      "ment": 307,
      "our": 308,
      "Ġr": 309,
      "Ġles": 310,
      "el": 311,
      "Ã¨": 312,
      "Ġdes": 313,
      "us": 314,
      "Ġen": 315,
      "Ġpr": 316,
      "al": 317,
      "ant": 318,
      "as": 319,
      "est": 320,
      "ans": 321,
      "ont": 322,
      "ĠÃ©": 323,
      "ce": 324,
      "me": 325,
      "ri": 326,
      "ation": 327,
      "au": 328,
      "Ġb": 329,
      "Ġau": 330,
      "Ġpar": 331,
      "Ġdu": 332,
      "ch": 333,
      "ve": 334,
      "Ã©s": 335,
      "eu": 336,
      "ait": 337,
      "at": 338,
      "que": 339,
      "ne": 340,
      "oi": 341,
      "ous": 342,
      "li": 343,
      "Ġg": 344,
      "ais": 345,
      "ĠL": 346,
      "os": 347,
      "Ġque": 348,
      "Ġpour": 349,
      "ci": 350,
      "ĠC": 351,
      "ra": 352,
      "ĠdÃ©": 353,
      "Ġdans": 354,
      "res": 355,
      "Ġune": 356,
      "Ġest": 357,
      "Ġcom": 358,
      "Ġcon": 359,
      "ag": 360,
      "tre": 361,
      "Ġre": 362,
      "de": 363,
      "di": 364,
      "tÃ©": 365,
      "Ġj": 366,
      "Ġpl": 367,
      "si": 368,
      "Ġin": 369,
      "mp": 370,
      "ol": 371,
      "se": 372,
      "Ġch": 373,
      "Ġqui": 374,
      "Ġpro": 375,
      "Ã©e": 376,
      "ie": 377,
      "Ġse": 378,
      "Ġsur": 379,
      "Ġe": 380,
      "ĠS": 381,
      "Ġpas": 382,
      "les": 383,
      "pp": 384,
      "ĠrÃ©": 385,
      "ac": 386,
      "ers": 387,
      "ĠM": 388,
      "ro": 389,
      "ff": 390,
      "ab": 391,
      "ĠP": 392,
      "Ãª": 393,
      "ui": 394,
      "elle": 395,
      "Ġplus": 396,
      "end": 397,
      "am": 398,
      "Ġh": 399,
      "aire": 400,
      "ĠA": 401,
      "ir": 402,
      "ain": 403,
      "ouv": 404,
      "ons": 405,
      "Ġo": 406,
      "Ġil": 407,
      "ul": 408,
      "Ġ(": 409,
      "urs": 410,
      "itÃ©": 411,
      "ale": 412,
      "Ã©r": 413,
      "Ã¨re": 414,
      "ĠD": 415,
      "ter": 416,
      "Ġtr": 417,
      "Ġdi": 418,
      "pr": 419,
      "and": 420,
      "Ġave": 421,
      "Ġne": 422,
      "ĠÂ": 423,
      "Ġou": 424,
      "tu": 425,
      "Ġce": 426,
      "ĠI": 427,
      "Ġav": 428,
      "Ã¨s": 429,
      "onn": 430,
      "ĠE": 431,
      "Ġavec": 432,
      "ig": 433,
      "tes": 434,
      "ĠB": 435,
      "ques": 436,
      "ces": 437,
      "Ġex": 438,
      "Ġsont": 439,
      "tr": 440,
      "Ã©es": 441,
      "Ġpeu": 442,
      "ort": 443,
      "ction": 444,
      "Ġvous": 445,
      "ien": 446,
      "Ġmo": 447,
      "ge": 448,
      "ati": 449,
      "Ġtou": 450,
      "ĠT": 451,
      "une": 452,
      "age": 453,
      "Ġson": 454,
      "id": 455,
      "ic": 456,
      "oir": 457,
      "mes": 458,
      "ĠR": 459,
      "Ġsu": 460,
      "ue": 461,
      "av": 462,
      "ance": 463,
      "pe": 464,
      "Ġsi": 465,
      "ette": 466,
      "Ã©t": 467,
      "Ã©ri": 468,
      "Ġ:": 469,
      "Ã©n": 470,
      "Ġgr": 471,
      "mi": 472,
      "ois": 473,
      "Ġan": 474,
      "ure": 475,
      "ux": 476,
      "aux": 477,
      "ĠJ": 478,
      "che": 479,
      "rÃ©": 480,
      "ĠF": 481,
      "ot": 482,
      "ĠÃ©t": 483,
      "mb": 484,
      "ine": 485,
      "ors": 486,
      "Ġte": 487,
      "ence": 488,
      "ique": 489,
      "Ġcont": 490,
      "Ġcomp": 491,
      "ĠN": 492,
      "ap": 493,
      "Ġi": 494,
      "ut": 495,
      "ens": 496,
      "uis": 497,
      "ĠIl": 498,
      "ĠG": 499,
      "ations": 500,
      "Ã´": 501,
      "oc": 502,
      "Ġmais": 503,
      "og": 504,
      "Ġont": 505,
      "Ġaux": 506,
      "Ġcons": 507,
      "Ġsa": 508,
      "entre": 509,
      "op": 510,
      "Ã©c": 511,
      "ĠÃ©tÃ©": 512,
      "ins": 513,
      "iv": 514,
      "eux": 515,
      "Ġac": 516,
      "lis": 517,
      "ad": 518,
      "ĠLe": 519,
      "ille": 520,
      "ĠÃª": 521,
      "ert": 522,
      "ĠÂ«": 523,
      "aient": 524,
      "du": 525,
      "orm": 526,
      "ail": 527,
      "Ġparti": 528,
      "ist": 529,
      "ay": 530,
      "ion": 531,
      "Ġapp": 532,
      "Ġcomme": 533,
      "Ġvo": 534,
      "Ġal": 535,
      "ments": 536,
      "ants": 537,
      "ang": 538,
      "ier": 539,
      "Ġtra": 540,
      "Ġso": 541,
      "Ġar": 542,
      "Ġcomm": 543,
      "tres": 544,
      "lÃ©": 545,
      "ĠÃªtre": 546,
      "ours": 547,
      "Ãªme": 548,
      "ord": 549,
      "ond": 550,
      "..": 551,
      "ate": 552,
      "Ã§": 553,
      "ĠV": 554,
      "Ġser": 555,
      "um": 556,
      "Ġli": 557,
      "ĠdÃ©c": 558,
      "app": 559,
      "Ġfait": 560,
      "Ġ\"": 561,
      "aires": 562,
      "ĠLa": 563,
      "Ġcette": 564,
      "able": 565,
      "ten": 566,
      "Ġje": 567,
      "Ãł": 568,
      "ĠÂ»": 569,
      "bre": 570,
      "uti": 571,
      "Ġper": 572,
      "Ġpo": 573,
      "ard": 574,
      "Ġpeut": 575,
      "ouve": 576,
      "ĠH": 577,
      "Ġses": 578,
      "Ġdev": 579,
      "Ġy": 580,
      "ĠLes": 581,
      "he": 582,
      "Ġdis": 583,
      "Ġnous": 584,
      "Ġdeux": 585,
      "Ġpers": 586,
      "Le": 587,
      "ise": 588,
      "ace": 589,
      "ub": 590,
      "ex": 591,
      "ct": 592,
      "Ġmar": 593,
      "sion": 594,
      "enti": 595,
      "prÃ¨s": 596,
      "Ġmon": 597,
      "Ġcar": 598,
      "onne": 599,
      "Ġnom": 600,
      "elles": 601,
      "eur": 602,
      "lement": 603,
      "ill": 604,
      "Ã©g": 605,
      "ess": 606,
      "Ġleur": 607,
      "Ã¨me": 608,
      "Ã®": 609,
      "Un": 610,
      "Ġpos": 611,
      "Ġentre": 612,
      "alement": 613,
      "im": 614,
      "oup": 615,
      "Ã¢": 616,
      "min": 617,
      "ussi": 618,
      "Ġpre": 619,
      "tin": 620,
      "eau": 621,
      "ĠmÃ©": 622,
      "Ġfor": 623,
      "ez": 624,
      "par": 625,
      "Ġtout": 626,
      "st": 627,
      "vi": 628,
      "utilis": 629,
      "ran": 630,
      "ore": 631,
      "tement": 632,
      "ĠprÃ©s": 633,
      "ts": 634,
      "vent": 635,
      "oire": 636,
      "ĠprÃ©": 637,
      "tat": 638,
      "Ġimp": 639,
      "alis": 640,
      "Ġlui": 641,
      "ble": 642,
      "tions": 643,
      "Ġas": 644,
      "ĠmÃªme": 645,
      "tique": 646,
      "ni": 647,
      "Ġme": 648,
      "Ġat": 649,
      "oy": 650,
      "Ġces": 651,
      "pos": 652,
      "ĠO": 653,
      "La": 654,
      "ents": 655,
      "aine": 656,
      "endre": 657,
      "Ġtrav": 658,
      "ob": 659,
      "fi": 660,
      "ĠrÃ©s": 661,
      "Ġter": 662,
      "Ġpremi": 663,
      "ande": 664,
      "teur": 665,
      "ph": 666,
      "ouver": 667,
      "ass": 668,
      "Ġsou": 669,
      "use": 670,
      "endant": 671,
      "ing": 672,
      "Ġbien": 673,
      "Ġvotre": 674,
      "ĠEn": 675,
      "Ġfaire": 676,
      "onc": 677,
      "ante": 678,
      "Ġcel": 679,
      "Les": 680,
      "ec": 681,
      "Ġelle": 682,
      "Ġsy": 683,
      "mps": 684,
      "lle": 685,
      ").": 686,
      "Ġ-": 687,
      "Ġfin": 688,
      "ĠÃ©tait": 689,
      "Ġdiff": 690,
      "ĠÃ©g": 691,
      "ales": 692,
      "ong": 693,
      "ĠÃ©c": 694,
      "ler": 695,
      "cu": 696,
      "Ġmal": 697,
      "ils": 698,
      "Ġob": 699,
      "its": 700,
      "ĠCh": 701,
      "aut": 702,
      "Ġcor": 703,
      "ente": 704,
      "Ġeff": 705,
      "ĠK": 706,
      "Ġam": 707,
      "cher": 708,
      "cip": 709,
      "ĠW": 710,
      "ven": 711,
      "omm": 712,
      "lic": 713,
      "Ġquel": 714,
      "rois": 715,
      "Ġvi": 716,
      "ĠrÃ©g": 717,
      "Ġinter": 718,
      "Ã©d": 719,
      "ains": 720,
      "tif": 721,
      "Ã¨res": 722,
      "Ġrec": 723,
      "rer": 724,
      "Ġaussi": 725,
      "Ġcl": 726,
      "Ġann": 727,
      "Ġman": 728,
      "Ġpersonn": 729,
      "Ã»": 730,
      "ĠâĢ": 731,
      "ves": 732,
      "Ġno": 733,
      "lÃ¨": 734,
      "Ã¹": 735,
      "Ġca": 736,
      "Ġpe": 737,
      "jet": 738,
      "rit": 739,
      "em": 740,
      "Ġres": 741,
      "Ġ?": 742,
      "Ġon": 743,
      "Ã©m": 744,
      "Ġavait": 745,
      "Ġjus": 746,
      "adi": 747,
      "Ġutilis": 748,
      "olog": 749,
      "out": 750,
      "nes": 751,
      "int": 752,
      "Ġmil": 753,
      "ĠgÃ©n": 754,
      "Ġti": 755,
      "Ġlors": 756,
      "Ġexp": 757,
      "ver": 758,
      "ture": 759,
      "Ġma": 760,
      "ĠtrÃ¨s": 761,
      "Ã©ra": 762,
      "Ġsans": 763,
      "fin": 764,
      "Ġad": 765,
      "Ġph": 766,
      "Ġsui": 767,
      "iste": 768,
      "des": 769,
      "aiss": 770,
      "Ġco": 771,
      "ourn": 772,
      "ĠÃ©galement": 773,
      "Ġans": 774,
      "Ġpay": 775,
      "omme": 776,
      "ĠaprÃ¨s": 777,
      "emp": 778,
      "ĠoÃ¹": 779,
      "Ġpuis": 780,
      "form": 781,
      "itÃ©s": 782,
      "tic": 783,
      "ition": 784,
      "Ġder": 785,
      "ures": 786,
      "),": 787,
      "Ġor": 788,
      "nement": 789,
      "ose": 790,
      "Ġprodu": 791,
      "Ġsp": 792,
      "Ġmin": 793,
      "Ġnombre": 794,
      "ĠPar": 795,
      "Ġcol": 796,
      "oit": 797,
      "Ġseu": 798,
      "Ġconc": 799,
      "uer": 800,
      "Ġtravail": 801,
      "Ġdire": 802,
      "Ġtemps": 803,
      "Ġdonn": 804,
      "Ġacc": 805,
      "insi": 806,
      "lu": 807,
      "Ġaut": 808,
      "Ã©p": 809,
      "Ġcha": 810,
      "Ġtous": 811,
      "ages": 812,
      "Ġth": 813,
      "orte": 814,
      "itu": 815,
      "tru": 816,
      "Ġsous": 817,
      "Ġcas": 818,
      "anc": 819,
      "ĠrÃ©p": 820,
      "Qu": 821,
      "Ġ;": 822,
      "Ġsoci": 823,
      "Ġren": 824,
      "Ġperm": 825,
      "Ġfr": 826,
      "ĠdÃ©p": 827,
      "Ġcontre": 828,
      "Ġcert": 829,
      "Ġpub": 830,
      "opp": 831,
      "Ġtrans": 832,
      "cess": 833,
      "iss": 834,
      "all": 835,
      "Ġavant": 836,
      "Ġdont": 837,
      "Ġst": 838,
      "titu": 839,
      "Ġdou": 840,
      "tis": 841,
      "Ġpoli": 842,
      "Ġvie": 843,
      "Ġenc": 844,
      "En": 845,
      "Ġpays": 846,
      "qui": 847,
      "els": 848,
      "Ġfois": 849,
      "Ġgrand": 850,
      "Ġcour": 851,
      "Ġleurs": 852,
      "aines": 853,
      "dic": 854,
      "Ġprin": 855,
      "agn": 856,
      "...": 857,
      "alitÃ©": 858,
      "cep": 859,
      "Ãªte": 860,
      "aison": 861,
      "Ġes": 862,
      "Ġavoir": 863,
      "ari": 864,
      "Ġprop": 865,
      "Ġvis": 866,
      "ign": 867,
      "ense": 868,
      "enne": 869,
      "Ġils": 870,
      "lar": 871,
      "puis": 872,
      "Ġfa": 873,
      "Ġthe": 874,
      "ĠJe": 875,
      "ĠnÃ©": 876,
      "iques": 877,
      "Ġnon": 878,
      "Ġfem": 879,
      "Il": 880,
      "Â»": 881,
      "Ġsec": 882,
      "ĠU": 883,
      "vel": 884,
      "tiques": 885,
      "Ġrapp": 886,
      "Ġass": 887,
      "Ġab": 888,
      "gan": 889,
      "Ġni": 890,
      "Ã©tÃ©": 891,
      "Ġbas": 892,
      "Ġpass": 893,
      "ĠCe": 894,
      "Ġent": 895,
      "Ġdem": 896,
      "lig": 897,
      "ici": 898,
      "Ġpeuvent": 899,
      "cul": 900,
      "Ġw": 901,
      "Ġainsi": 902,
      "ib": 903,
      "olu": 904,
      "rait": 905,
      "Ġju": 906,
      "ange": 907,
      "Ãªtre": 908,
      "teurs": 909,
      "Ġpouv": 910,
      "Ġaff": 911,
      "Ġcr": 912,
      "ĠÃ©v": 913,
      "Ġalors": 914,
      "ĠcrÃ©": 915,
      "ches": 916,
      "Ġconf": 917,
      "elon": 918,
      "ature": 919,
      "Ġcap": 920,
      "Ġenv": 921,
      "Ġmont": 922,
      "Ġmoins": 923,
      "oin": 924,
      "Ġpeti": 925,
      "lique": 926,
      "Ġconn": 927,
      "ies": 928,
      "asse": 929,
      "Ġmonde": 930,
      "Ġfon": 931,
      "Ġcompr": 932,
      "Ġtrois": 933,
      "Ġlong": 934,
      "ta": 935,
      "Åĵ": 936,
      "Ġmes": 937,
      "Ġdit": 938,
      "Ġcontr": 939,
      "tats": 940,
      "ues": 941,
      "ĠdÃ©s": 942,
      "rop": 943,
      "Ġprob": 944,
      "Ġcela": 945,
      "ctions": 946,
      "velopp": 947,
      "omp": 948,
      "are": 949,
      "Ġprof": 950,
      "Ġenf": 951,
      "Ġbr": 952,
      "rib": 953,
      "Ġencore": 954,
      "ĠdiffÃ©r": 955,
      "ĠdÃ©b": 956,
      "yp": 957,
      "tÃ©r": 958,
      "Ã©v": 959,
      "tiv": 960,
      "uses": 961,
      "Ġcommun": 962,
      "ps": 963,
      "ĠÃ©le": 964,
      "autres": 965,
      "tÃ©ri": 966,
      "Ġrepr": 967,
      "Ġins": 968,
      "Ġvers": 969,
      "igne": 970,
      "rent": 971,
      "Ġdro": 972,
      "ole": 973,
      "one": 974,
      "Ġinc": 975,
      "Ġim": 976,
      "ann": 977,
      "ences": 978,
      "ieurs": 979,
      "Ġche": 980,
      "Ġpendant": 981,
      "mÃ©": 982,
      "eure": 983,
      "Ġdonc": 984,
      "Ġinf": 985,
      "acc": 986,
      "vre": 987,
      "if": 988,
      "ions": 989,
      "Ġsoit": 990,
      "Ġpersonnes": 991,
      "Ġautres": 992,
      "omb": 993,
      "Ġbeau": 994,
      "ĠdÃ©velopp": 995,
      "oul": 996,
      "Ġver": 997,
      "Ġindi": 998,
      "Ġfil": 999,
      "ode": 1000,
      "antes": 1001,
      "Ġpermet": 1002,
      "th": 1003,
      "Ġmain": 1004,
      "ide": 1005,
      "chÃ©": 1006,
      "Ġpart": 1007,
      "Ġimport": 1008,
      "ath": 1009,
      "ables": 1010,
      "Ã¯": 1011,
      "quer": 1012,
      "Ãī": 1013,
      "Ġform": 1014,
      "lus": 1015,
      "mble": 1016,
      "tionn": 1017,
      "ateur": 1018,
      "Ġdepuis": 1019,
      "la": 1020,
      "Ġautre": 1021,
      "mbre": 1022,
      "uite": 1023,
      "Ġ!": 1024,
      "oci": 1025,
      "ix": 1026,
      "jours": 1027,
      "ouvent": 1028,
      "Ġnouv": 1029,
      "ĠDe": 1030,
      "erv": 1031,
      "Ġpres": 1032,
      "aÃ®": 1033,
      "ĠMar": 1034,
      "ats": 1035,
      "ĠMais": 1036,
      "onom": 1037,
      "Ġcou": 1038,
      "Ġjou": 1039,
      "iÃ¨re": 1040,
      "ellement": 1041,
      "Ġag": 1042,
      "ranÃ§": 1043,
      "ĠUn": 1044,
      "Ġpartie": 1045,
      "quÃ©": 1046,
      "Ġtoute": 1047,
      "ances": 1048,
      "ĠÃī": 1049,
      "ram": 1050,
      "coup": 1051,
      "ilitÃ©": 1052,
      "dre": 1053,
      "Ã´t": 1054,
      "Ġdoit": 1055,
      "ĠdÃ©f": 1056,
      "ĠprÃ©c": 1057,
      "Ġmus": 1058,
      "ĠSi": 1059,
      "Ġplusieurs": 1060,
      "ommes": 1061,
      "Ġchez": 1062,
      "Ġprog": 1063,
      "uit": 1064,
      "ises": 1065,
      "Ġemp": 1066,
      "Ġtoujours": 1067,
      "tive": 1068,
      "atique": 1069,
      "vis": 1070,
      "Ġnouve": 1071,
      "ines": 1072,
      "od": 1073,
      "Ġof": 1074,
      "Ġjusqu": 1075,
      "Ġprincip": 1076,
      "nent": 1077,
      "ĠQu": 1078,
      "avoir": 1079,
      "Ġmaladi": 1080,
      "Ġjour": 1081,
      "Ġcours": 1082,
      "ĠsÃ©": 1083,
      "Ġoff": 1084,
      "Ġmilli": 1085,
      "Ġpremier": 1086,
      "ouvez": 1087,
      "Ġques": 1088,
      "ĠÃ©p": 1089,
      "ĠPour": 1090,
      "ern": 1091,
      "Ã©ci": 1092,
      "Ã©ric": 1093,
      "Ġfonction": 1094,
      "Ġrest": 1095,
      "ganis": 1096,
      "enc": 1097,
      "ĠdÃ©m": 1098,
      "Ġtel": 1099,
      "imp": 1100,
      "Ġsitu": 1101,
      "Ġrel": 1102,
      "Ġfer": 1103,
      "Ġnotre": 1104,
      "mer": 1105,
      "cid": 1106,
      "ges": 1107,
      "Ġservi": 1108,
      "ĠDans": 1109,
      "ĠprÃ©sent": 1110,
      "oupe": 1111,
      "cle": 1112,
      "ĠÃ©tu": 1113,
      "uire": 1114,
      "bles": 1115,
      "Ã¨ne": 1116,
      "Ġfam": 1117,
      "ĠIn": 1118,
      "ĠFr": 1119,
      "Ã©lÃ©": 1120,
      "ĠElle": 1121,
      "Ġgouver": 1122,
      "ĠAn": 1123,
      "ites": 1124,
      "Ġpossi": 1125,
      "Ġrou": 1126,
      "ettre": 1127,
      "Ġbeaucoup": 1128,
      "ets": 1129,
      "ĠlÃ©g": 1130,
      "ement": 1131,
      "vers": 1132,
      "agne": 1133,
      "ĠpremiÃ¨re": 1134,
      "ite": 1135,
      "Ġsc": 1136,
      "Ġmen": 1137,
      "ner": 1138,
      "ĠannÃ©es": 1139,
      "iter": 1140,
      "Ġfond": 1141,
      "Ġk": 1142,
      "ĠnÃ©cess": 1143,
      "leur": 1144,
      "Ġbl": 1145,
      "exp": 1146,
      "ĠAl": 1147,
      "Ġsyst": 1148,
      "Ã©ration": 1149,
      "Ġtoutes": 1150,
      "enir": 1151,
      "Ġpouvez": 1152,
      "ud": 1153,
      "ric": 1154,
      "ĠspÃ©ci": 1155,
      "ranÃ§ais": 1156,
      "vez": 1157,
      "Ġquelques": 1158,
      "sid": 1159,
      "aitement": 1160,
      "ich": 1161,
      "gment": 1162,
      "entes": 1163,
      "Ġcan": 1164,
      "Ġaur": 1165,
      "Ġsera": 1166,
      "Â«": 1167,
      "ov": 1168,
      "Ã©tait": 1169,
      "ire": 1170,
      "Ġcorps": 1171,
      "ieu": 1172,
      "Ġgrande": 1173,
      "\",": 1174,
      "sement": 1175,
      "az": 1176,
      "ĠdÃ©clar": 1177,
      "Ġcoup": 1178,
      "amment": 1179,
      "Ġparticu": 1180,
      "Ġop": 1181,
      "ili": 1182,
      "Ġexemp": 1183,
      "Ġtu": 1184,
      "Ġrem": 1185,
      "Ã©li": 1186,
      "ĠmÃ©t": 1187,
      "Ġrecher": 1188,
      "ivers": 1189,
      "ĠEt": 1190,
      "Ġplace": 1191,
      "Ġmoy": 1192,
      "Ġpropos": 1193,
      "Ġderni": 1194,
      "ĠâĢĵ": 1195,
      "Ġchar": 1196,
      "anti": 1197,
      "Ġjam": 1198,
      "aille": 1199,
      "Ġmod": 1200,
      "Ġpersonne": 1201,
      "ĠsiÃ¨": 1202,
      "Ġsub": 1203,
      "Ãªt": 1204,
      "ident": 1205,
      "ĠmÃ©dic": 1206,
      "veau": 1207,
      "Ġfut": 1208,
      "ss": 1209,
      "Ġappar": 1210,
      "sez": 1211,
      "Ġsupp": 1212,
      "ĠY": 1213,
      "iÃ¨me": 1214,
      "ress": 1215,
      "ourd": 1216,
      "Ã´le": 1217,
      "Ġsal": 1218,
      "ĠrÃ©f": 1219,
      "Ġess": 1220,
      "isme": 1221,
      "tant": 1222,
      "hui": 1223,
      "ade": 1224,
      "ĠdÃ©j": 1225,
      "Ġsouvent": 1226,
      "Ġbou": 1227,
      "fs": 1228,
      "ru": 1229,
      "Ġparticuli": 1230,
      "Ġvos": 1231,
      "lam": 1232,
      "ow": 1233,
      "act": 1234,
      "Ġmois": 1235,
      "Ġconsid": 1236,
      "ach": 1237,
      "rai": 1238,
      "anger": 1239,
      "Ġgar": 1240,
      "Ġcomb": 1241,
      "Ġrapport": 1242,
      "Ġto": 1243,
      "Ġmat": 1244,
      "istoire": 1245,
      "Ã©qu": 1246,
      "erci": 1247,
      "ateurs": 1248,
      "Ġid": 1249,
      "Ġsuc": 1250,
      "fic": 1251,
      "Ġchaque": 1252,
      "ieux": 1253,
      "ĠUne": 1254,
      "ĠFrance": 1255,
      "ak": 1256,
      "tra": 1257,
      "Ġproc": 1258,
      "Ġreg": 1259,
      "iens": 1260,
      "ĠX": 1261,
      "ĠAu": 1262,
      "Ġsol": 1263,
      "ient": 1264,
      "illes": 1265,
      "Ġva": 1266,
      "rez": 1267,
      "Ġbes": 1268,
      "ime": 1269,
      "opul": 1270,
      "Ġsimp": 1271,
      "Ã©l": 1272,
      "Ġselon": 1273,
      "ĠreprÃ©s": 1274,
      "Ġpor": 1275,
      "Ġenfants": 1276,
      "Ġmort": 1277,
      "ys": 1278,
      "ĠgÃ©nÃ©r": 1279,
      "Ġdom": 1280,
      "Ġcet": 1281,
      "Ġnation": 1282,
      "Pour": 1283,
      "Ġmom": 1284,
      "Ġlib": 1285,
      "Ġdur": 1286,
      "Ġnature": 1287,
      "Ġjours": 1288,
      "ell": 1289,
      "antÃ©": 1290,
      "oix": 1291,
      "gn": 1292,
      "Ġpi": 1293,
      "Ã©b": 1294,
      "ĠdÃ©jÃł": 1295,
      "Ġnot": 1296,
      "Ġlieu": 1297,
      "Ġpublic": 1298,
      "ĠrÃ©sul": 1299,
      "vous": 1300,
      "ative": 1301,
      "Ã§on": 1302,
      "ĠÃ©taient": 1303,
      "Ġpoint": 1304,
      "Ġquand": 1305,
      "ela": 1306,
      "Ġcomment": 1307,
      "Ġmis": 1308,
      "ĠOn": 1309,
      "ger": 1310,
      "ds": 1311,
      "man": 1312,
      "tenir": 1313,
      "Ġpopul": 1314,
      "Ġnouveau": 1315,
      "Ġauc": 1316,
      "Ġraison": 1317,
      "Ġrep": 1318,
      "Ġeu": 1319,
      "fois": 1320,
      "Ġand": 1321,
      "Ġz": 1322,
      "ĠsystÃ¨me": 1323,
      "mis": 1324,
      "Ġremp": 1325,
      "ah": 1326,
      "Ġresp": 1327,
      "riv": 1328,
      "Ġpris": 1329,
      "Ġville": 1330,
      "Ġvol": 1331,
      "Ġsig": 1332,
      "riÃ¨re": 1333,
      "Ġcal": 1334,
      "aite": 1335,
      "Ġexemple": 1336,
      "anci": 1337,
      "ron": 1338,
      "Ġtraitement": 1339,
      "ĠamÃ©ric": 1340,
      "Ġgouvernement": 1341,
      "ĠIls": 1342,
      "ĠrÃ©c": 1343,
      "Ġliv": 1344,
      "gÃ©": 1345,
      "âĢ¦": 1346,
      "Ġdroit": 1347,
      "raph": 1348,
      "ĠfranÃ§ais": 1349,
      "Ã¨g": 1350,
      "Ġsuiv": 1351,
      "art": 1352,
      "Ġcent": 1353,
      "Ġcontin": 1354,
      "Ã¨rement": 1355,
      "Dans": 1356,
      "uerre": 1357,
      "Ġpouvoir": 1358,
      "Ġprov": 1359,
      "air": 1360,
      "Ġretr": 1361,
      "Ġcul": 1362,
      "ĠpÃ©ri": 1363,
      "era": 1364,
      "pendant": 1365,
      "||": 1366,
      "Ġdemand": 1367,
      "Ġafin": 1368,
      "Ġcin": 1369,
      "Ġplan": 1370,
      "ĠcÃ´": 1371,
      "tien": 1372,
      "jou": 1373,
      "Ġforme": 1374,
      "Ġind": 1375,
      "enu": 1376,
      "Ġcher": 1377,
      "Ġcelui": 1378,
      "olution": 1379,
      "nation": 1380,
      "Ġmeille": 1381,
      "Ġceux": 1382,
      "oli": 1383,
      "Ġmoment": 1384,
      "ticle": 1385,
      "part": 1386,
      "Ġprojet": 1387,
      "Ġfemmes": 1388,
      "lex": 1389,
      "arr": 1390,
      "ĠrÃ©alis": 1391,
      "iti": 1392,
      "mbl": 1393,
      "Ġhum": 1394,
      "ologie": 1395,
      "Ġpolitique": 1396,
      "gl": 1397,
      "pect": 1398,
      "Ġsup": 1399,
      "ĠÂ»,": 1400,
      "Ġrap": 1401,
      "rÃ©s": 1402,
      "rie": 1403,
      "Ġris": 1404,
      "Ã»t": 1405,
      "Ġtech": 1406,
      "Ġgroupe": 1407,
      "Ġmoi": 1408,
      "Ġesp": 1409,
      "Ġfemme": 1410,
      "Ġnos": 1411,
      "Ġprendre": 1412,
      "Ġbon": 1413,
      "jourd": 1414,
      "Ġseulement": 1415,
      "istre": 1416,
      "uc": 1417,
      "Ġtant": 1418,
      "Ġappel": 1419,
      "Ġvoir": 1420,
      "Ġaugment": 1421,
      "cri": 1422,
      "autre": 1423,
      "Ġloc": 1424,
      "Ġjamais": 1425,
      "Ġcompte": 1426,
      "Ġvrai": 1427,
      "Ã©rie": 1428,
      "Ġhab": 1429,
      "Ġmaladie": 1430,
      "tifs": 1431,
      "ton": 1432,
      "In": 1433,
      "nier": 1434,
      "Ġpati": 1435,
      "oris": 1436,
      "tenant": 1437,
      "oque": 1438,
      "Ġquat": 1439,
      "Ġ.": 1440,
      "Ġmati": 1441,
      "aint": 1442,
      "sions": 1443,
      "\".": 1444,
      "Ġcri": 1445,
      "Ġniveau": 1446,
      "ĠsantÃ©": 1447,
      "dec": 1448,
      "onde": 1449,
      "Ġdoi": 1450,
      "ĠdÃ©but": 1451,
      "esse": 1452,
      "ĠVous": 1453,
      "Ġchose": 1454,
      "Ġsem": 1455,
      "Ġsuis": 1456,
      "ĠgÃ©nÃ©ra": 1457,
      "Ġatt": 1458,
      "Ġ[": 1459,
      "Ġcondi": 1460,
      "Unis": 1461,
      "ok": 1462,
      "oie": 1463,
      "fier": 1464,
      "Ġdernier": 1465,
      "raÃ®": 1466,
      "inf": 1467,
      "eures": 1468,
      "Ġeffet": 1469,
      "Ġret": 1470,
      "Ã©rÃ©": 1471,
      "Je": 1472,
      "cup": 1473,
      "Ġgl": 1474,
      "cont": 1475,
      "Ġpens": 1476,
      "onse": 1477,
      "Ġcompos": 1478,
      "aff": 1479,
      "ĠCette": 1480,
      "Ġcli": 1481,
      "Ġcertains": 1482,
      "Ġquestion": 1483,
      "tel": 1484,
      "ali": 1485,
      "auv": 1486,
      "ression": 1487,
      "itaire": 1488,
      "Ġ,": 1489,
      "Ġprogram": 1490,
      "Ġfaut": 1491,
      "duire": 1492,
      "Ġfais": 1493,
      "ĠrÃ©v": 1494,
      "Ġali": 1495,
      "Ġlorsque": 1496,
      "ĠRe": 1497,
      "quipe": 1498,
      "ĠÂ».": 1499,
      "ile": 1500,
      "orti": 1501,
      "ĠCan": 1502,
      "Ġref": 1503,
      "Ġis": 1504,
      "tÃ©e": 1505,
      "sionn": 1506,
      "Ġnouvelle": 1507,
      "ĠmÃ©dec": 1508,
      "Ce": 1509,
      "aisse": 1510,
      "Ġfac": 1511,
      "ĠmaniÃ¨re": 1512,
      "Ġentrepr": 1513,
      "uss": 1514,
      "gie": 1515,
      "ris": 1516,
      "ĠreprÃ©sent": 1517,
      "Ġenvir": 1518,
      "Ġpossible": 1519,
      "Ġsang": 1520,
      "Une": 1521,
      "Ġviv": 1522,
      "ĠrÃ©gion": 1523,
      "mÃ©e": 1524,
      "Ġcelle": 1525,
      "Ġgens": 1526,
      "Ġinform": 1527,
      "Ġdemande": 1528,
      "ĠNous": 1529,
      "Ġsens": 1530,
      "ĠNe": 1531,
      "Ġeur": 1532,
      "Ġgra": 1533,
      "Ġfamille": 1534,
      "cteur": 1535,
      "aur": 1536,
      "erre": 1537,
      "ĠdÃ©clarÃ©": 1538,
      "Ġsour": 1539,
      "suite": 1540,
      "Ġtrop": 1541,
      "Ġsuite": 1542,
      "Åĵu": 1543,
      "ind": 1544,
      "Ġoc": 1545,
      "oph": 1546,
      "Ġcommenc": 1547,
      "Ġhommes": 1548,
      "Si": 1549,
      "Ġbase": 1550,
      "Ġpartir": 1551,
      "ribu": 1552,
      "ype": 1553,
      "oires": 1554,
      "Ġouv": 1555,
      "opÃ©": 1556,
      "ĠsociÃ©tÃ©": 1557,
      "Ã©cur": 1558,
      "Ġbesoin": 1559,
      "ada": 1560,
      "Ã¨rent": 1561,
      "Ġtour": 1562,
      "Ġrecherche": 1563,
      "oth": 1564,
      "Ġsigni": 1565,
      "ĠdÃ©veloppement": 1566,
      "ĠsiÃ¨cle": 1567,
      "ĠrÃ¨g": 1568,
      "inter": 1569,
      "eff": 1570,
      "Ġmaison": 1571,
      "--": 1572,
      "Ġjourn": 1573,
      "ager": 1574,
      "Ġviol": 1575,
      "Ġsavoir": 1576,
      "yant": 1577,
      "iles": 1578,
      "Ġsoi": 1579,
      "ust": 1580,
      "Ã¨te": 1581,
      "co": 1582,
      "ĠÃ©conom": 1583,
      "Ġconstitu": 1584,
      "Ġall": 1585,
      "Ġrapide": 1586,
      "Ġavez": 1587,
      "rique": 1588,
      "Ġseul": 1589,
      "Ġpourrait": 1590,
      "ori": 1591,
      "Ġplu": 1592,
      "Ġdispos": 1593,
      "att": 1594,
      "ome": 1595,
      "Ġatte": 1596,
      "esp": 1597,
      "Ġdoc": 1598,
      "Ġavons": 1599,
      "ograph": 1600,
      "ule": 1601,
      "Ġrencont": 1602,
      "Ġproduit": 1603,
      "Ã©rer": 1604,
      "ĠfaÃ§on": 1605,
      "aise": 1606,
      "oles": 1607,
      "Ġvic": 1608,
      "be": 1609,
      "Ġrend": 1610,
      "quoi": 1611,
      "Ġexc": 1612,
      "rÃ©e": 1613,
      "ĠlÃł": 1614,
      "Ġeux": 1615,
      "Ġchange": 1616,
      "istes": 1617,
      "ĠmÃ©dica": 1618,
      "ĠÃītats": 1619,
      "Ġsex": 1620,
      "Ġorganis": 1621,
      "ysi": 1622,
      "Ġguerre": 1623,
      "An": 1624,
      "mo": 1625,
      "leurs": 1626,
      "ke": 1627,
      "Ġfilm": 1628,
      "quel": 1629,
      "oss": 1630,
      "Ġprix": 1631,
      "grÃ©": 1632,
      "Al": 1633,
      "mÃªme": 1634,
      "Ġactu": 1635,
      "Ġquelque": 1636,
      "Ġmemb": 1637,
      "vec": 1638,
      "Ġsci": 1639,
      "ĠprÃ©sident": 1640,
      "Ġsite": 1641,
      "Ġproduits": 1642,
      "inc": 1643,
      "ĠnÃ©cessaire": 1644,
      "Ġcrois": 1645,
      "Ġrespons": 1646,
      "Ã©nÃ©": 1647,
      "Ġtrait": 1648,
      "Ġsujet": 1649,
      "ital": 1650,
      "Ġpubli": 1651,
      "ĠAr": 1652,
      "Ġense": 1653,
      "Ġord": 1654,
      "action": 1655,
      "jec": 1656,
      "ĠtÃªte": 1657,
      "Ã©ment": 1658,
      "Ġeffec": 1659,
      "Ġvoit": 1660,
      "ĠthÃ©": 1661,
      "Ġnotamment": 1662,
      "Ġnombreux": 1663,
      "Ġprocess": 1664,
      "Ġligne": 1665,
      "Ġpropri": 1666,
      "gu": 1667,
      "Ġfl": 1668,
      "gent": 1669,
      "Ġrien": 1670,
      "tÃ©rieur": 1671,
      "Ġten": 1672,
      "Ġporte": 1673,
      "Ġmesure": 1674,
      "rir": 1675,
      "ĠprÃ¨s": 1676,
      "Ġconstru": 1677,
      "Ġparce": 1678,
      "cture": 1679,
      "Ġreven": 1680,
      "Ġconse": 1681,
      "Ġlang": 1682,
      "yn": 1683,
      "Ġdoivent": 1684,
      "Ġtemp": 1685,
      "ienne": 1686,
      "Ġserait": 1687,
      "ast": 1688,
      "Ġmer": 1689,
      "Au": 1690,
      "je": 1691,
      "ĠÃ©ch": 1692,
      "oses": 1693,
      "Ġcir": 1694,
      "oh": 1695,
      "orme": 1696,
      "Ġelles": 1697,
      "Ġloi": 1698,
      "ĠdÃ©t": 1699,
      "Ġjeune": 1700,
      "Ġvale": 1701,
      "Ġveu": 1702,
      "ĠTh": 1703,
      "Ġreste": 1704,
      "ĠtÃ©lÃ©": 1705,
      "til": 1706,
      "Ġprocessus": 1707,
      "idÃ©": 1708,
      "ĠgÃ©nÃ©ral": 1709,
      "Ġquatre": 1710,
      "Ġtrouve": 1711,
      "Ġinst": 1712,
      "tier": 1713,
      "ox": 1714,
      "ĠCela": 1715,
      "avant": 1716,
      "Ġress": 1717,
      "ĠsÃ©cur": 1718,
      "lÃ©ment": 1719,
      "Ġlaiss": 1720,
      "Ġpuiss": 1721,
      "Ġsep": 1722,
      "vir": 1723,
      "atis": 1724,
      "tention": 1725,
      "Ġreconn": 1726,
      "Ġjeu": 1727,
      "quelle": 1728,
      "ĠÃ§": 1729,
      "Ġhomme": 1730,
      "pec": 1731,
      "Ġcause": 1732,
      "Ġimportant": 1733,
      "ible": 1734,
      "Ġlar": 1735,
      "atri": 1736,
      "Ġinternation": 1737,
      "unes": 1738,
      "istr": 1739,
      "ĠdÃ©fin": 1740,
      "ret": 1741,
      "Ġdevant": 1742,
      "ĠconsÃ©qu": 1743,
      "mment": 1744,
      "aissance": 1745,
      "Ġdist": 1746,
      "Ġcer": 1747,
      "Ġvoy": 1748,
      "Ġsymp": 1749,
      "Ġlaquelle": 1750,
      "ĠdonnÃ©es": 1751,
      "Ġmillions": 1752,
      "ĠGr": 1753,
      "Ġmondi": 1754,
      "Ġport": 1755,
      "ope": 1756,
      "Ġavaient": 1757,
      "Ġparticip": 1758,
      "duit": 1759,
      "Ġfai": 1760,
      "Ġfourn": 1761,
      "ĠÃ©lev": 1762,
      "aÃ®tre": 1763,
      "ĠZ": 1764,
      "Ġpetit": 1765,
      "De": 1766,
      "Ġbi": 1767,
      "Ġtype": 1768,
      "ĠÃ§a": 1769,
      "ĠcÃ´tÃ©": 1770,
      "loy": 1771,
      "Ġcad": 1772,
      "Ġprom": 1773,
      "Ġsign": 1774,
      "Ġdisp": 1775,
      "termin": 1776,
      "ĠprÃ©v": 1777,
      "agit": 1778,
      "atÃ©g": 1779,
      "Ġtot": 1780,
      "II": 1781,
      "tent": 1782,
      "nÃ©": 1783,
      "enf": 1784,
      "homme": 1785,
      "Ġtravers": 1786,
      "ĠdÃ©cis": 1787,
      "Ġterr": 1788,
      "Ġri": 1789,
      "tivitÃ©": 1790,
      "Ġ/": 1791,
      "ĠintÃ©": 1792,
      "Ã©tu": 1793,
      "Ġmembres": 1794,
      "Ġpoi": 1795,
      "abilitÃ©": 1796,
      "Ġfeu": 1797,
      "ase": 1798,
      "Ġpu": 1799,
      "ith": 1800,
      "Ġanti": 1801,
      "ĠpÃ©riode": 1802,
      "Ġmodi": 1803,
      "ĠDieu": 1804,
      "atiques": 1805,
      "Ġtechn": 1806,
      "ones": 1807,
      "ront": 1808,
      "Ġbonne": 1809,
      "Ġmettre": 1810,
      "Ġsituation": 1811,
      "Ġtest": 1812,
      "Ġtrouv": 1813,
      "âĢĿ": 1814,
      "histoire": 1815,
      "Ġtard": 1816,
      "ĠÃĢ": 1817,
      "Ġsus": 1818,
      "raient": 1819,
      "Ġphysi": 1820,
      "pl": 1821,
      "fique": 1822,
      "tern": 1823,
      "Ġface": 1824,
      "ĠÃ¢": 1825,
      "Ġarr": 1826,
      "Ġobs": 1827,
      "tez": 1828,
      "Ġbat": 1829,
      "Ġsorti": 1830,
      "assi": 1831,
      "duction": 1832,
      "Ġfra": 1833,
      "vid": 1834,
      "Ar": 1835,
      "Ã©h": 1836,
      "onnement": 1837,
      "yc": 1838,
      "son": 1839,
      "eb": 1840,
      "Ġsecond": 1841,
      "lin": 1842,
      "ĠreÃ§": 1843,
      "Ġhau": 1844,
      "Ġsyn": 1845,
      "Ġmouve": 1846,
      "ende": 1847,
      "Ġaujourd": 1848,
      "uli": 1849,
      "ĠSt": 1850,
      "dit": 1851,
      "ĠmÃ©th": 1852,
      "icile": 1853,
      "eurs": 1854,
      "Ã¨le": 1855,
      "Ġend": 1856,
      "ĠDes": 1857,
      "Ġaid": 1858,
      "Ġici": 1859,
      "Ġdiri": 1860,
      "ĠParis": 1861,
      "ablement": 1862,
      "ĠÃ©tr": 1863,
      "amb": 1864,
      "ĠprotÃ©": 1865,
      "ĠCes": 1866,
      "Ġcond": 1867,
      "Ġdisc": 1868,
      "ettes": 1869,
      "oritÃ©": 1870,
      "orts": 1871,
      "fie": 1872,
      "acitÃ©": 1873,
      "lection": 1874,
      "omment": 1875,
      "amp": 1876,
      "rier": 1877,
      "Ġpoin": 1878,
      "ĠsÃ©curitÃ©": 1879,
      "Ġvari": 1880,
      "Ġheures": 1881,
      "Ġanci": 1882,
      "Ġmieux": 1883,
      "xte": 1884,
      "cident": 1885,
      "ĠQ": 1886,
      "Ġsau": 1887,
      "lac": 1888,
      "ĠnÃ©g": 1889,
      "ed": 1890,
      "Ġ%": 1891,
      "tient": 1892,
      "Ġmaj": 1893,
      "Ġlit": 1894,
      "Ġpriv": 1895,
      "aÃ®t": 1896,
      "ĠeuropÃ©": 1897,
      "aci": 1898,
      "ĠrÃ©gime": 1899,
      "Ġplupart": 1900,
      "Ġassoci": 1901,
      "ik": 1902,
      "Ã©di": 1903,
      "rale": 1904,
      "Ġrev": 1905,
      "Ġrisque": 1906,
      "ption": 1907,
      "ane": 1908,
      "ĠÃ©tudi": 1909,
      "lÃ¨me": 1910,
      "Ġsuff": 1911,
      "Ġaurait": 1912,
      "vention": 1913,
      "vient": 1914,
      "Ã©rence": 1915,
      "ennes": 1916,
      "Ġtrouver": 1917,
      "tim": 1918,
      "ĠrÃ©pond": 1919,
      "Ġminu": 1920,
      "ug": 1921,
      "Ġvue": 1922,
      "Ġmet": 1923,
      "ĠÃ©tab": 1924,
      "Ġchois": 1925,
      "Ã¢ce": 1926,
      "atoire": 1927,
      "Par": 1928,
      "ĠSh": 1929,
      "aÃ¯": 1930,
      "Ġmari": 1931,
      "Ġassez": 1932,
      "Ġmag": 1933,
      "Ã«": 1934,
      "Ã©ch": 1935,
      "ĠrÃ´le": 1936,
      "ĠprocÃ©d": 1937,
      "duc": 1938,
      "temps": 1939,
      "ĠproblÃ¨me": 1940,
      "aque": 1941,
      "dess": 1942,
      "Ġrecomm": 1943,
      "ĠsÃ©rie": 1944,
      "tout": 1945,
      "aud": 1946,
      "ĠSaint": 1947,
      "Ġterre": 1948,
      "Ġbut": 1949,
      "ĠdÃ©termin": 1950,
      "Ch": 1951,
      "Ġconditions": 1952,
      "Ġvit": 1953,
      "Ġregard": 1954,
      "ossi": 1955,
      "Ġeffectu": 1956,
      "lÃ¨mes": 1957,
      "Ġmaintenant": 1958,
      "uel": 1959,
      "Ġservices": 1960,
      "Ġchoses": 1961,
      "Ġpropre": 1962,
      "Ã¨tres": 1963,
      "ission": 1964,
      "gement": 1965,
      "tie": 1966,
      "tÃ´": 1967,
      "Ġfont": 1968,
      "ĠmarchÃ©": 1969,
      "Ġatta": 1970,
      "mÃ©di": 1971,
      "aide": 1972,
      "Ġconsomm": 1973,
      "Ġphot": 1974,
      "lir": 1975,
      "oule": 1976,
      "Ġple": 1977,
      "ON": 1978,
      "avait": 1979,
      "Ġdonner": 1980,
      "ication": 1981,
      "ĠâĢľ": 1982,
      "ĠCar": 1983,
      "Ġayant": 1984,
      "up": 1985,
      "Ġexiste": 1986,
      "actÃ©r": 1987,
      "Ġchamp": 1988,
      "ax": 1989,
      "Ġmise": 1990,
      "Ġchi": 1991,
      "ock": 1992,
      "Ġcamp": 1993,
      "Ġbar": 1994,
      "ĠpÃ¨re": 1995,
      "gr": 1996,
      "Ġanim": 1997,
      "Ġtomb": 1998,
      "Ġciv": 1999,
      "urope": 2000,
      "Ġservice": 2001,
      "urg": 2002,
      "ĠannÃ©e": 2003,
      "roi": 2004,
      "Ġajou": 2005,
      "Ġdivers": 2006,
      "ĠproblÃ¨mes": 2007,
      "ĠrÃ©sultats": 2008,
      "ĠderniÃ¨re": 2009,
      "Ġmanif": 2010,
      "Ġensuite": 2011,
      "ĠdeuxiÃ¨me": 2012,
      "Ġnombreuses": 2013,
      "Ġdess": 2014,
      "Ġproduction": 2015,
      "Ġdevrait": 2016,
      "oupes": 2017,
      "ult": 2018,
      "ĠCanada": 2019,
      "orer": 2020,
      "igine": 2021,
      "Ġterme": 2022,
      "ia": 2023,
      "endu": 2024,
      "Ã©cu": 2025,
      "ception": 2026,
      "oÃ»t": 2027,
      "ensi": 2028,
      "rage": 2029,
      "Ġfaci": 2030,
      "itions": 2031,
      "Ġrac": 2032,
      "Ġcertaines": 2033,
      "Ġci": 2034,
      "Ġaucun": 2035,
      "ĠSe": 2036,
      "sy": 2037,
      "Ġaliment": 2038,
      "Ġimm": 2039,
      "ĠprÃ©f": 2040,
      "Ġcentre": 2041,
      "ĠpiÃ¨": 2042,
      "aly": 2043,
      "lication": 2044,
      "Ġprogramme": 2045,
      "ards": 2046,
      "ĠentraÃ®": 2047,
      "roit": 2048,
      "Ġsais": 2049,
      "Ġdocu": 2050,
      "utilisation": 2051,
      "erne": 2052,
      "Ġtitre": 2053,
      "quent": 2054,
      "ĠsymptÃ´": 2055,
      "Ġculture": 2056,
      "Ġgen": 2057,
      "Ġsenti": 2058,
      "ancer": 2059,
      "ĠsÃ»": 2060,
      "Ġtent": 2061,
      "Ġdevez": 2062,
      "bilitÃ©": 2063,
      "reg": 2064,
      "Ġpie": 2065,
      "ĠâĢĶ": 2066,
      "Ġsouh": 2067,
      "ĠPro": 2068,
      "Ġpetite": 2069,
      "Ġabs": 2070,
      "Ġlim": 2071,
      "Ġdroits": 2072,
      "lo": 2073,
      "ES": 2074,
      "Ġdirec": 2075,
      "Ġprofes": 2076,
      "Ġdouleur": 2077,
      "vant": 2078,
      "Ġtourn": 2079,
      "lec": 2080,
      "Ġmot": 2081,
      "less": 2082,
      "oration": 2083,
      "ouss": 2084,
      "ĠcaractÃ©r": 2085,
      "ĠfrÃ©": 2086,
      "ologique": 2087,
      "ĠprÃ©cis": 2088,
      "time": 2089,
      "Ġmor": 2090,
      "auche": 2091,
      "vement": 2092,
      "Ġvoul": 2093,
      "anche": 2094,
      "ĠAprÃ¨s": 2095,
      "roy": 2096,
      "Ãªmes": 2097,
      "illet": 2098,
      "ting": 2099,
      "Ġappr": 2100,
      "ly": 2101,
      "ĠgÃ©nÃ©ralement": 2102,
      "ĠdonnÃ©": 2103,
      "Ġenviron": 2104,
      "rec": 2105,
      "quÃªte": 2106,
      "istor": 2107,
      "Ġparticulier": 2108,
      "ĠvÃ©r": 2109,
      "Ġsucc": 2110,
      "Ġnorm": 2111,
      "Ġvraiment": 2112,
      "Ġlorsqu": 2113,
      "Ġoffici": 2114,
      "Ġmoyen": 2115,
      "ze": 2116,
      "Ġpol": 2117,
      "Ġsemble": 2118,
      "Ã©ti": 2119,
      "Ġsouff": 2120,
      "urer": 2121,
      "resse": 2122,
      "ĠThe": 2123,
      "Ġach": 2124,
      "Ġcinq": 2125,
      "Ġint": 2126,
      "Ġseule": 2127,
      "abord": 2128,
      "usement": 2129,
      "Ġeng": 2130,
      "Ã©mie": 2131,
      "ĠAm": 2132,
      "Ġministre": 2133,
      "fici": 2134,
      "vision": 2135,
      "Ġcapit": 2136,
      "Ġformation": 2137,
      "Ġcit": 2138,
      "ĠÅĵu": 2139,
      "Ã©rique": 2140,
      "atif": 2141,
      "fication": 2142,
      "Ġunique": 2143,
      "aliste": 2144,
      "Ġtaux": 2145,
      "ĠutilisÃ©": 2146,
      "erve": 2147,
      "Ġdonne": 2148,
      "ĠmÃ©decin": 2149,
      "lles": 2150,
      "ame": 2151,
      "Ġhaut": 2152,
      "Ġdol": 2153,
      "ĠpassÃ©": 2154,
      "ĠmÃ¨re": 2155,
      "Ġven": 2156,
      "ĠbÃ©nÃ©": 2157,
      "Ġextr": 2158,
      "Ġposition": 2159,
      "prise": 2160,
      "Â»,": 2161,
      "annÃ©e": 2162,
      "usse": 2163,
      "Ġlu": 2164,
      "Ġpasse": 2165,
      "Ġjuste": 2166,
      "ĠdiffÃ©rentes": 2167,
      "orter": 2168,
      "Ġfils": 2169,
      "Ġrelig": 2170,
      "Ġpeup": 2171,
      "vier": 2172,
      "Ġpense": 2173,
      "Ġminutes": 2174,
      "Ġmul": 2175,
      "ote": 2176,
      "ĠdÃ©couv": 2177,
      "Ġvaleur": 2178,
      "Ġyeux": 2179,
      "ĠqualitÃ©": 2180,
      "Ġrapidement": 2181,
      "isation": 2182,
      "ĠdiffÃ©rents": 2183,
      "bes": 2184,
      "ension": 2185,
      "Ġcadre": 2186,
      "iers": 2187,
      "ĠmÃ©di": 2188,
      "itaires": 2189,
      "Ġmaladies": 2190,
      "Ġseront": 2191,
      "ĠÃ©crit": 2192,
      "Ġmai": 2193,
      "ierre": 2194,
      "ry": 2195,
      "loi": 2196,
      "Ġsurtout": 2197,
      "organis": 2198,
      "prit": 2199,
      "On": 2200,
      "Ġlongue": 2201,
      "Ġrais": 2202,
      "ĠComm": 2203,
      "origine": 2204,
      "Ã©tÃ©s": 2205,
      "ĠPh": 2206,
      "Ġchef": 2207,
      "Nous": 2208,
      "Ġposs": 2209,
      "ras": 2210,
      "Ġvu": 2211,
      "ĠcomplÃ¨": 2212,
      "Åĵur": 2213,
      "tal": 2214,
      "Ã¨de": 2215,
      "Ġir": 2216,
      "der": 2217,
      "ork": 2218,
      "ĠJean": 2219,
      "Ġpourquoi": 2220,
      "utÃ´t": 2221,
      "oute": 2222,
      "Ġprend": 2223,
      "Ġnouvelles": 2224,
      "Ġdollar": 2225,
      "identi": 2226,
      "ĠÃ©tant": 2227,
      "iller": 2228,
      "Ġfille": 2229,
      "val": 2230,
      "lise": 2231,
      "eter": 2232,
      "urent": 2233,
      "arch": 2234,
      "ates": 2235,
      "aul": 2236,
      "ocra": 2237,
      "Ġbless": 2238,
      "Ġclasse": 2239,
      "atives": 2240,
      "erts": 2241,
      "arde": 2242,
      "cessi": 2243,
      "Ġtransp": 2244,
      "Ġpai": 2245,
      "miÃ¨re": 2246,
      "rant": 2247,
      "fiÃ©": 2248,
      "Ã©taire": 2249,
      "Ġeffic": 2250,
      "endance": 2251,
      "ulation": 2252,
      "ulaire": 2253,
      "Ġjeunes": 2254,
      "ĠCependant": 2255,
      "odes": 2256,
      "Vous": 2257,
      "ĠLors": 2258,
      "lem": 2259,
      "Ã¨se": 2260,
      "ĠNew": 2261,
      "Ġcroiss": 2262,
      "Ġfort": 2263,
      "Ġquoi": 2264,
      "ĠgrÃ¢ce": 2265,
      "Ġaucune": 2266,
      "Ã©ro": 2267,
      "Cette": 2268,
      "Ġrecommand": 2269,
      "Ã©tique": 2270,
      "tt": 2271,
      "Ġpoids": 2272,
      "isse": 2273,
      "Ġpours": 2274,
      "land": 2275,
      "Ġautour": 2276,
      "Ġfinanci": 2277,
      "Ġcherche": 2278,
      "Ġcompris": 2279,
      "lace": 2280,
      "Ġfab": 2281,
      "Ġtrou": 2282,
      "Ġforce": 2283,
      "ĠsymptÃ´mes": 2284,
      "Ġlivre": 2285,
      "resp": 2286,
      "Ġplac": 2287,
      "ortÃ©": 2288,
      "Ġaccord": 2289,
      "Ġindivid": 2290,
      "Ã©lÃ¨": 2291,
      "oncÃ©": 2292,
      "oun": 2293,
      "tice": 2294,
      "Ġpratique": 2295,
      "Ġpasser": 2296,
      "quant": 2297,
      "ĠdÃ¨s": 2298,
      "ĠmatÃ©ri": 2299,
      "ip": 2300,
      "Ġconte": 2301,
      "Ġetc": 2302,
      "Ġbois": 2303,
      "ĠsupÃ©ri": 2304,
      "rig": 2305,
      "Ġutiliser": 2306,
      "inform": 2307,
      "lier": 2308,
      "Ġtels": 2309,
      "Ġdifficile": 2310,
      "cas": 2311,
      "erce": 2312,
      "Ġaller": 2313,
      "ww": 2314,
      "Ġstru": 2315,
      "aill": 2316,
      "iversitÃ©": 2317,
      "ĠplutÃ´t": 2318,
      "Ġopp": 2319,
      "voir": 2320,
      "alisation": 2321,
      "heure": 2322,
      "ĠcontrÃ´le": 2323,
      "tivitÃ©s": 2324,
      "af": 2325,
      "ĠcaractÃ©ris": 2326,
      "Ġlut": 2327,
      "oyau": 2328,
      "Ġquestions": 2329,
      "Ġtradi": 2330,
      "sych": 2331,
      "ĠmÃ©dicaments": 2332,
      "off": 2333,
      "alitÃ©s": 2334,
      "quÃ©e": 2335,
      "Ùİ": 2336,
      "Ġpolice": 2337,
      "for": 2338,
      "Ġconcern": 2339,
      "Ġtable": 2340,
      "Ġinformations": 2341,
      "indre": 2342,
      "Ã©quipe": 2343,
      "Ġpot": 2344,
      "ĠbÃ¢": 2345,
      "irus": 2346,
      "Ġpoints": 2347,
      "Â°": 2348,
      "Ġaider": 2349,
      "Ãªts": 2350,
      "ĠSon": 2351,
      "mon": 2352,
      "Ã¨nes": 2353,
      "alyse": 2354,
      "ĠCor": 2355,
      "xim": 2356,
      "article": 2357,
      "Ġus": 2358,
      "ĠexpÃ©ri": 2359,
      "ĠmaÃ®": 2360,
      "Ġrom": 2361,
      "Ã¨mes": 2362,
      "Ġsimple": 2363,
      "orie": 2364,
      "iner": 2365,
      "ĠÃ©lÃ©": 2366,
      "Ġroi": 2367,
      "Ġnour": 2368,
      "lie": 2369,
      "Ġproch": 2370,
      "yd": 2371,
      "argent": 2372,
      "uri": 2373,
      "Ġsoir": 2374,
      "ĠamÃ©li": 2375,
      "och": 2376,
      "Ġgrands": 2377,
      "Ġprote": 2378,
      "Ġsemaine": 2379,
      "Ġprofessionn": 2380,
      "Ġlequel": 2381,
      "enant": 2382,
      "Ġfran": 2383,
      "Mais": 2384,
      "Des": 2385,
      "ĠprÃ©sence": 2386,
      "Ġradi": 2387,
      "Ġaffir": 2388,
      "uve": 2389,
      "nements": 2390,
      "Ġtyp": 2391,
      "Ġpopulation": 2392,
      "ĠÃªtes": 2393,
      "Ġdestin": 2394,
      "ĠdÃ©cision": 2395,
      "Ġmouvement": 2396,
      "fiques": 2397,
      "ĠÃ©lect": 2398,
      "Ġval": 2399,
      "Ġdollars": 2400,
      "Ġfi": 2401,
      "ÃĢ": 2402,
      "Ġpresque": 2403,
      "Ġzone": 2404,
      "Ġnum": 2405,
      "Ġmauv": 2406,
      "ash": 2407,
      "iennent": 2408,
      "ber": 2409,
      "Ġtri": 2410,
      "amen": 2411,
      "airement": 2412,
      "Ġarri": 2413,
      "ĠvidÃ©": 2414,
      "Ġsommes": 2415,
      "ĠprÃ©sente": 2416,
      "Ġveut": 2417,
      "Ġsorte": 2418,
      "ack": 2419,
      ".\"": 2420,
      "Ġsim": 2421,
      "Ġsud": 2422,
      "Ġquanti": 2423,
      "aprÃ¨s": 2424,
      "Ġpatients": 2425,
      "ĠpÃ©n": 2426,
      "Ġlog": 2427,
      "Ġparfois": 2428,
      "Ġmanifest": 2429,
      "Ġrendre": 2430,
      "ĠCon": 2431,
      "io": 2432,
      "tenu": 2433,
      "ril": 2434,
      "ett": 2435,
      "hab": 2436,
      "Ġretour": 2437,
      "ĠdÃ©cid": 2438,
      "respond": 2439,
      "Ġnuit": 2440,
      "Ġsix": 2441,
      "Ã©rap": 2442,
      "Ġparc": 2443,
      "Ġban": 2444,
      "Ġgagn": 2445,
      "ĠrÃ©un": 2446,
      "oud": 2447,
      "Ġdispar": 2448,
      "Ġidenti": 2449,
      "oti": 2450,
      "Ġsaison": 2451,
      "ĠMon": 2452,
      "Ġges": 2453,
      "Ġbe": 2454,
      "Ġterrit": 2455,
      "oint": 2456,
      "uelle": 2457,
      "Ġsignifie": 2458,
      "AN": 2459,
      "ape": 2460,
      "].": 2461,
      "dire": 2462,
      "Ã©tat": 2463,
      "Ġquar": 2464,
      "asser": 2465,
      "Ġcertain": 2466,
      "Ġaccomp": 2467,
      "Ġparler": 2468,
      "Ġoblig": 2469,
      "die": 2470,
      "ER": 2471,
      "andis": 2472,
      "uy": 2473,
      "Ġstr": 2474,
      "Ġhabit": 2475,
      "tives": 2476,
      "tembre": 2477,
      "Ġnord": 2478,
      "Ã¢te": 2479,
      "Ġcomprendre": 2480,
      "Ġmesures": 2481,
      "oure": 2482,
      "inÃ©": 2483,
      "Ġessay": 2484,
      "ules": 2485,
      "Ġjuin": 2486,
      "ĠmatiÃ¨re": 2487,
      "Ġcoll": 2488,
      "Ġpsych": 2489,
      "Ãītat": 2490,
      "Ġgauche": 2491,
      "Ġfig": 2492,
      "Ġcorrespond": 2493,
      "Ġdispon": 2494,
      "Ġcommerci": 2495,
      "Ġnav": 2496,
      "erm": 2497,
      "quip": 2498,
      "Ġentreprises": 2499,
      "ĠÃ©conomique": 2500,
      "otre": 2501,
      "ministr": 2502,
      "iser": 2503,
      "ĠChar": 2504,
      "eng": 2505,
      "Ġmarch": 2506,
      "lent": 2507,
      "com": 2508,
      "Ġmilieu": 2509,
      "obre": 2510,
      "Ġpremiers": 2511,
      "lamm": 2512,
      "ĠPr": 2513,
      "Ġpolitiques": 2514,
      "Ġdiffic": 2515,
      "envir": 2516,
      "Ġemploy": 2517,
      "Ġsein": 2518,
      "cles": 2519,
      "Ġchoix": 2520,
      "Ġheure": 2521,
      "ĠprÃ©par": 2522,
      "Ġgu": 2523,
      "Ġexpli": 2524,
      "Ġcellu": 2525,
      "rog": 2526,
      "Ġsac": 2527,
      "Ġessenti": 2528,
      "Ġarriv": 2529,
      "Ġsimplement": 2530,
      "ĠtÃ©m": 2531,
      "Ġchac": 2532,
      "ĠsÃ»r": 2533,
      "Ġappro": 2534,
      "Ġforces": 2535,
      "Ġphysique": 2536,
      "usÃ©": 2537,
      "Ġangl": 2538,
      "lev": 2539,
      "Ġscienti": 2540,
      "Ġquit": 2541,
      "appar": 2542,
      "Ġobjec": 2543,
      "ordre": 2544,
      "Ġparmi": 2545,
      "Ġloin": 2546,
      "Ġcommence": 2547,
      "ection": 2548,
      "Ġgrandes": 2549,
      "Ġcombat": 2550,
      "Ġarticle": 2551,
      "tivement": 2552,
      "ueil": 2553,
      "Ġdevient": 2554,
      "sp": 2555,
      "inaire": 2556,
      "Ġinv": 2557,
      "Ġaccep": 2558,
      "Ġtermin": 2559,
      "did": 2560,
      "ira": 2561,
      "Ġtrib": 2562,
      "Ã©hic": 2563,
      "enn": 2564,
      "Ġcharge": 2565,
      "Ġlangue": 2566,
      "ĠSa": 2567,
      "oins": 2568,
      "ĠsuccÃ¨s": 2569,
      "llem": 2570,
      "ĠMont": 2571,
      "cipe": 2572,
      "venir": 2573,
      "ades": 2574,
      "hum": 2575,
      "Ġconv": 2576,
      "Ġfav": 2577,
      "ĠamÃ©ricain": 2578,
      "quis": 2579,
      "ionn": 2580,
      "ĠCol": 2581,
      "atta": 2582,
      "ibles": 2583,
      "ographie": 2584,
      "Ġnouveaux": 2585,
      "Ġoct": 2586,
      "Ġvoi": 2587,
      "ĠTr": 2588,
      "Ġlesqu": 2589,
      "ma": 2590,
      "issent": 2591,
      "Ġfix": 2592,
      "Ġprovo": 2593,
      "Ġvient": 2594,
      "Ġsembl": 2595,
      "ĠcrÃ©er": 2596,
      "Ġparties": 2597,
      "Ġhistor": 2598,
      "anvier": 2599,
      "ĠdÃ©g": 2600,
      "Ġremar": 2601,
      "Et": 2602,
      "Ġpeau": 2603,
      "Ġtaille": 2604,
      "Ġseptembre": 2605,
      "ĠChine": 2606,
      "ussie": 2607,
      "ambre": 2608,
      "agnos": 2609,
      "Ġmars": 2610,
      "Ġensemble": 2611,
      "ĠvÃ©hic": 2612,
      "Ġprise": 2613,
      "let": 2614,
      "ĠÃ©tudes": 2615,
      "ĠcommencÃ©": 2616,
      "Ġsav": 2617,
      "Ġjuillet": 2618,
      "Â».": 2619,
      "âĢĶ": 2620,
      "istance": 2621,
      "Ġmondiale": 2622,
      "autÃ©": 2623,
      "niques": 2624,
      "ensemble": 2625,
      "Ġ...": 2626,
      "Ġliste": 2627,
      "Ġenti": 2628,
      "Ġconnu": 2629,
      "cer": 2630,
      "roite": 2631,
      "illage": 2632,
      "isc": 2633,
      "Ġlongtemps": 2634,
      "Ã¢ge": 2635,
      "ĠrÃ©guli": 2636,
      "Ġmots": 2637,
      "arc": 2638,
      "ĠCl": 2639,
      "aces": 2640,
      "tÃ©rÃªt": 2641,
      "ĠgÃ©": 2642,
      "lit": 2643,
      "Ġorig": 2644,
      "ĠÃ©tat": 2645,
      "ĠÃ©trang": 2646,
      "Ġconstruction": 2647,
      "ani": 2648,
      "Ġdate": 2649,
      "Ġobtenir": 2650,
      "Ġsurf": 2651,
      "AR": 2652,
      "Ġenfant": 2653,
      "vembre": 2654,
      "Ġchau": 2655,
      "Ġnationale": 2656,
      "tÃ©es": 2657,
      "Lors": 2658,
      "Ġsoient": 2659,
      "ĠimmÃ©di": 2660,
      "Ġbal": 2661,
      "ination": 2662,
      "etÃ©": 2663,
      "con": 2664,
      "ĠrÃ©ponse": 2665,
      "Ġconfir": 2666,
      "dessus": 2667,
      "Ġgard": 2668,
      "onomie": 2669,
      "Ġorgan": 2670,
      "ince": 2671,
      "tip": 2672,
      "erie": 2673,
      "Ġexpl": 2674,
      "vestis": 2675,
      "ost": 2676,
      "ologiques": 2677,
      "gne": 2678,
      "Ġpil": 2679,
      "Ġfaible": 2680,
      "Am": 2681,
      "ity": 2682,
      "Ġparents": 2683,
      "Ġtelle": 2684,
      "onseil": 2685,
      "ĠprÃ©cÃ©d": 2686,
      "ĠintÃ©ress": 2687,
      "AprÃ¨s": 2688,
      "Ġpatient": 2689,
      "vie": 2690,
      "ĠMal": 2691,
      "Ġdirection": 2692,
      "Ġpath": 2693,
      "ĠmÃ©c": 2694,
      "Ġhyp": 2695,
      "ĠCour": 2696,
      "Ġenvoy": 2697,
      "Ġrespec": 2698,
      "cre": 2699,
      "urÃ©": 2700,
      "ĠtroisiÃ¨me": 2701,
      "ĠÃ©quipe": 2702,
      "cription": 2703,
      "Ġparf": 2704,
      "titude": 2705,
      "riture": 2706,
      "Ġcollec": 2707,
      "cl": 2708,
      "cembre": 2709,
      "entreprise": 2710,
      "Ġdimin": 2711,
      "ennent": 2712,
      "Ġeffets": 2713,
      "ainte": 2714,
      "Ġiniti": 2715,
      "Ġjanvier": 2716,
      "ĠsupplÃ©ment": 2717,
      "ht": 2718,
      "armÃ©e": 2719,
      "Ġcroissance": 2720,
      "ĠEtats": 2721,
      "oritÃ©s": 2722,
      "ĠmÃ©l": 2723,
      "arer": 2724,
      "mique": 2725,
      "rou": 2726,
      "gue": 2727,
      "Ġmusique": 2728,
      "Ġartic": 2729,
      "yl": 2730,
      "Ġcertaine": 2731,
      "Ã©tude": 2732,
      "Ġbord": 2733,
      "Ġdoute": 2734,
      "Ġtandis": 2735,
      "Ãªtes": 2736,
      "Ġdirige": 2737,
      "Ġdroite": 2738,
      "ĠrÃ©ussi": 2739,
      "Ġrencontre": 2740,
      "ĠstratÃ©g": 2741,
      "Ġdos": 2742,
      "Ġsemaines": 2743,
      "ohn": 2744,
      "Ã©rÃ©e": 2745,
      "Ġcuis": 2746,
      "abs": 2747,
      "usion": 2748,
      "Ġmeilleur": 2749,
      "Ġobserv": 2750,
      "inois": 2751,
      "ĠÃ©lÃ©ments": 2752,
      "onnes": 2753,
      "ĠNord": 2754,
      "Ġcam": 2755,
      "EN": 2756,
      "Ġtransform": 2757,
      "vres": 2758,
      "ĠactivitÃ©s": 2759,
      "ĠMe": 2760,
      "Ġfour": 2761,
      "Ġpage": 2762,
      "Ġmatin": 2763,
      "urb": 2764,
      "Ġprotection": 2765,
      "Ġgroupes": 2766,
      "Ã©ner": 2767,
      "ration": 2768,
      "Ġconserv": 2769,
      "Ġpat": 2770,
      "ĠdÃ©fense": 2771,
      "ĠBr": 2772,
      "Ġtransf": 2773,
      "duis": 2774,
      "Ġdiagnos": 2775,
      "intÃ©rieur": 2776,
      "Ġnovembre": 2777,
      "Ġpeine": 2778,
      "Ġnaturel": 2779,
      "Ã«l": 2780,
      "Ġvoix": 2781,
      "Ġdevenir": 2782,
      "cide": 2783,
      "ana": 2784,
      "ertÃ©": 2785,
      "Ġsuffis": 2786,
      "Ġmess": 2787,
      "Ġmas": 2788,
      "Ġdomaine": 2789,
      "ĠcapacitÃ©": 2790,
      "ha": 2791,
      "Ġnoir": 2792,
      "Ġcandid": 2793,
      "Ġoctobre": 2794,
      "ĠfranÃ§aise": 2795,
      "ĠrÃ©duire": 2796,
      "Ġpou": 2797,
      "ducation": 2798,
      "Ġpermis": 2799,
      "Ġcomplex": 2800,
      "inte": 2801,
      "Ġpeuple": 2802,
      "Ġdix": 2803,
      "ĠgÃ©nÃ©rale": 2804,
      "Ġoutre": 2805,
      "ĠbÃ¢ti": 2806,
      "lissement": 2807,
      "ressi": 2808,
      "ĠdÃ©mocra": 2809,
      "Ġmy": 2810,
      "__": 2811,
      "trait": 2812,
      "Ġlibre": 2813,
      "ĠparticuliÃ¨rement": 2814,
      "Ġcelles": 2815,
      "Ġpublique": 2816,
      "Ġvendre": 2817,
      "Ġtiss": 2818,
      "ĠConseil": 2819,
      "Ġvolont": 2820,
      "once": 2821,
      "andes": 2822,
      "Ġallem": 2823,
      "Ġgros": 2824,
      "Ġcontinu": 2825,
      "Ġprot": 2826,
      "otidi": 2827,
      "ots": 2828,
      "ĠÃ©qu": 2829,
      "----": 2830,
      "utri": 2831,
      "ĠdÃ©cembre": 2832,
      "Ġimportante": 2833,
      "Ġcependant": 2834,
      "accord": 2835,
      "Ġblanc": 2836,
      "Ġexig": 2837,
      "ouverte": 2838,
      "Ġanal": 2839,
      "ĠfÃ©d": 2840,
      "ĠRussie": 2841,
      "Ã©poque": 2842,
      "Ġcompagn": 2843,
      "//": 2844,
      "Ġlarge": 2845,
      "Ġstat": 2846,
      "alu": 2847,
      "Ġmatch": 2848,
      "enfant": 2849,
      "Ġsource": 2850,
      "Ġcomprend": 2851,
      "per": 2852,
      "uits": 2853,
      "Ġperte": 2854,
      "Ġtravaux": 2855,
      "uni": 2856,
      "Ġpouvait": 2857,
      "issement": 2858,
      "Ġtelles": 2859,
      "ĠÃ©tude": 2860,
      "Ġsoutien": 2861,
      "Ġrouge": 2862,
      "Ġvict": 2863,
      "âĢĵ": 2864,
      "ĠTru": 2865,
      "lant": 2866,
      "Ġuti": 2867,
      "intÃ©": 2868,
      "Ġriv": 2869,
      "ĠSud": 2870,
      "Ġmains": 2871,
      "Ġneu": 2872,
      "ĠRÃ©p": 2873,
      "ĠderniÃ¨res": 2874,
      "ĠSur": 2875,
      "rice": 2876,
      "Ġrece": 2877,
      "Ġcompar": 2878,
      "tine": 2879,
      "Ġait": 2880,
      "Ġconfi": 2881,
      "ĠdÃ»": 2882,
      "ides": 2883,
      "ice": 2884,
      "Ġquotidi": 2885,
      "Ġautom": 2886,
      "Ġdocument": 2887,
      "ĠTout": 2888,
      "Ġpression": 2889,
      "agement": 2890,
      "ĠmodÃ¨le": 2891,
      "Ġunivers": 2892,
      "Ġdurant": 2893,
      "Ġtexte": 2894,
      "ars": 2895,
      "ources": 2896,
      "Ġfrapp": 2897,
      "enez": 2898,
      "Ġbout": 2899,
      "Ġvois": 2900,
      "apon": 2901,
      "Ġvoyage": 2902,
      "odi": 2903,
      "oyaume": 2904,
      "ald": 2905,
      "Ġcrise": 2906,
      "Ġpetits": 2907,
      "ministration": 2908,
      "Ġtypes": 2909,
      "Ġobjet": 2910,
      "://": 2911,
      "Ġexpos": 2912,
      "ĠauprÃ¨s": 2913,
      "ĠAvec": 2914,
      "ĠcompÃ©t": 2915,
      "anne": 2916,
      "Ġrelations": 2917,
      "ute": 2918,
      "ĠIs": 2919,
      "Ġpoursui": 2920,
      "ĠvidÃ©o": 2921,
      "hÃ´": 2922,
      "ĠcÅĵur": 2923,
      "atement": 2924,
      "ublique": 2925,
      "Ġconnaiss": 2926,
      "ĠCons": 2927,
      "alisme": 2928,
      "Comment": 2929,
      "Ġcouv": 2930,
      "alistes": 2931,
      "Ġenreg": 2932,
      "lications": 2933,
      "rite": 2934,
      "ume": 2935,
      "Ġartis": 2936,
      "Ġmilitaire": 2937,
      "Ġve": 2938,
      "veur": 2939,
      "ĠAb": 2940,
      "ĠrÃ©sultat": 2941,
      "Ġvont": 2942,
      "Ġrelation": 2943,
      "ĠrÃ¨gles": 2944,
      "Ġemb": 2945,
      "ĠcoÃ»": 2946,
      "Ã©nergie": 2947,
      "cs": 2948,
      "itation": 2949,
      "ilos": 2950,
      "Ġjustice": 2951,
      "crit": 2952,
      "Ġmoyenne": 2953,
      "matique": 2954,
      "ament": 2955,
      "tiÃ©": 2956,
      "Ġpal": 2957,
      "Ġavril": 2958,
      "Ġcalcul": 2959,
      "IN": 2960,
      "aie": 2961,
      "rist": 2962,
      "lez": 2963,
      "ropri": 2964,
      "Ġprincipal": 2965,
      "Ġvoiture": 2966,
      "bres": 2967,
      "Ġminist": 2968,
      "Ġsomme": 2969,
      "Ġmontre": 2970,
      "Ġconsci": 2971,
      "oÃ¯": 2972,
      "hyp": 2973,
      "ouse": 2974,
      "Ġchien": 2975,
      "Ġcondam": 2976,
      "erver": 2977,
      "ĠdurÃ©e": 2978,
      "Ġmi": 2979,
      "ĠquantitÃ©": 2980,
      "casion": 2981,
      "Or": 2982,
      "gÃ©s": 2983,
      "ĠComme": 2984,
      "ĠBien": 2985,
      "agÃ©": 2986,
      "Ġcaus": 2987,
      "Ġcellules": 2988,
      "Ġpap": 2989,
      "Ġfrais": 2990,
      "Ġconseil": 2991,
      "Ġconne": 2992,
      "Ġcontribu": 2993,
      "Ġefficace": 2994,
      "Ġha": 2995,
      "ĠPre": 2996,
      "Ġmanque": 2997,
      "ourg": 2998,
      "ĠindÃ©p": 2999,
      "ĠcrÃ©ation": 3000,
      "Selon": 3001,
      "Ã©ral": 3002,
      "ĠscÃ¨ne": 3003,
      "indi": 3004,
      "Ġrepos": 3005,
      "RE": 3006,
      "Ġroute": 3007,
      "ĠPlus": 3008,
      "Ġhistoire": 3009,
      "ĠreÃ§u": 3010,
      "imm": 3011,
      "Ġcontra": 3012,
      "Ġautant": 3013,
      "ĠfrÃ©qu": 3014,
      "Ġprobablement": 3015,
      "orÃ©": 3016,
      "avantage": 3017,
      "Ġmic": 3018,
      "Ġaura": 3019,
      "quÃ©s": 3020,
      "ony": 3021,
      "Ġconsul": 3022,
      "Ġchangement": 3023,
      "ĠÃ©n": 3024,
      "ĠtempÃ©r": 3025,
      "ancÃ©": 3026,
      "ĠcÃ©lÃ¨": 3027,
      "ĠOr": 3028,
      "ki": 3029,
      "ĠDi": 3030,
      "Ġexist": 3031,
      "ĠAinsi": 3032,
      "Ġtrain": 3033,
      "ĠmÃ©dicament": 3034,
      "len": 3035,
      "Ġton": 3036,
      "Ã©vrier": 3037,
      "Ġtermes": 3038,
      "IS": 3039,
      "ĠlumiÃ¨re": 3040,
      "Ġreti": 3041,
      "pir": 3042,
      "ĠÃ©cl": 3043,
      "ĠÃ©vÃ©": 3044,
      "occup": 3045,
      "ĠEx": 3046,
      "ĠmÃ©thode": 3047,
      "ĠsÃ©par": 3048,
      "cons": 3049,
      "rim": 3050,
      "ĠSelon": 3051,
      "Ġgestion": 3052,
      "ĠJohn": 3053,
      "objet": 3054,
      "Ġvoie": 3055,
      "ortement": 3056,
      "sie": 3057,
      "itable": 3058,
      "Ġlig": 3059,
      "ĠFran": 3060,
      "frique": 3061,
      "ĠdÃ©tail": 3062,
      "Ġsouv": 3063,
      "Ġsty": 3064,
      "ctu": 3065,
      "Ġmoyens": 3066,
      "Ġquelqu": 3067,
      "idence": 3068,
      "Ã¨tre": 3069,
      "appel": 3070,
      "Ġcardi": 3071,
      "ouverture": 3072,
      "ĠjournÃ©e": 3073,
      "char": 3074,
      "ĠMich": 3075,
      "ĠÃ©li": 3076,
      "Ġcontenu": 3077,
      "Ġchemin": 3078,
      "Ġment": 3079,
      "Ġcode": 3080,
      "auteur": 3081,
      "cteurs": 3082,
      "gh": 3083,
      "Ġhabitu": 3084,
      "Ġrenfor": 3085,
      "Europe": 3086,
      "ĠBar": 3087,
      "ĠrÃ©alitÃ©": 3088,
      "lan": 3089,
      "ĠcommunautÃ©": 3090,
      "ĠaoÃ»t": 3091,
      "Ġadop": 3092,
      "Ġsurface": 3093,
      "Ġpri": 3094,
      "Ġfaisant": 3095,
      "ustri": 3096,
      "ĠarrÃª": 3097,
      "Ġdirectement": 3098,
      "activitÃ©": 3099,
      "Ġconcernant": 3100,
      "Ġâ": 3101,
      "Ġrue": 3102,
      ".,": 3103,
      "ormes": 3104,
      "Ġrej": 3105,
      "llemagne": 3106,
      "ook": 3107,
      "ĠGu": 3108,
      "onte": 3109,
      "tÃ©s": 3110,
      "Ġgrat": 3111,
      "Ġcontrat": 3112,
      "alif": 3113,
      "ĠAd": 3114,
      "Ġparten": 3115,
      "ka": 3116,
      "Ġvas": 3117,
      "tit": 3118,
      "Ġcircul": 3119,
      "Ġsort": 3120,
      "Ã©nom": 3121,
      "ĠrÃª": 3122,
      "Ġgarde": 3123,
      "Ġfaites": 3124,
      "veill": 3125,
      "atoires": 3126,
      "ĠappelÃ©": 3127,
      "Ġvente": 3128,
      "onie": 3129,
      "Ġrepro": 3130,
      "Ġoccup": 3131,
      "Ġnational": 3132,
      "Ġcaract": 3133,
      "ailleurs": 3134,
      "ĠamÃ©ricaine": 3135,
      "Ġchacun": 3136,
      "estre": 3137,
      "Ġconst": 3138,
      "Ġcouleur": 3139,
      "sembl": 3140,
      "Ã§ons": 3141,
      "Ġlun": 3142,
      "ĠlibertÃ©": 3143,
      "mar": 3144,
      "Ġbure": 3145,
      "ĠTrump": 3146,
      "Ġmembre": 3147,
      "Ġpersonnel": 3148,
      "onnÃ©": 3149,
      "bil": 3150,
      "ĠdÃ©n": 3151,
      "Ġraisons": 3152,
      "illeurs": 3153,
      "Ġautoris": 3154,
      "ouis": 3155,
      "Etat": 3156,
      "Ġmarque": 3157,
      "ĠmÃ©m": 3158,
      "ĠconsÃ©quent": 3159,
      "ĠvÃ©ri": 3160,
      "aj": 3161,
      "Ġaide": 3162,
      "atifs": 3163,
      "Ġmode": 3164,
      "Ġjuge": 3165,
      "Ġgaz": 3166,
      "uff": 3167,
      "ignement": 3168,
      "ĠÃ©levÃ©": 3169,
      "unal": 3170,
      "Ġtravailler": 3171,
      "ĠcontrÃ´": 3172,
      "Ġentreprise": 3173,
      "ĠrÃ©seau": 3174,
      "chant": 3175,
      "lor": 3176,
      "cier": 3177,
      "Ġpotenti": 3178,
      "Ġ&": 3179,
      "ina": 3180,
      "AS": 3181,
      "ĠÃ©quip": 3182,
      "Ġstructure": 3183,
      "ĠMan": 3184,
      "Ġdemander": 3185,
      "ĠCom": 3186,
      "Ġgross": 3187,
      "ĠpremiÃ¨res": 3188,
      "apit": 3189,
      "truire": 3190,
      "Ġcaf": 3191,
      "Ġsimil": 3192,
      "Ġchinois": 3193,
      "ĠcarriÃ¨re": 3194,
      "Ġinstru": 3195,
      "ociation": 3196,
      "Ġchron": 3197,
      "Ã©rÃ©s": 3198,
      "Ġsoulig": 3199,
      "ĠSp": 3200,
      "Ġfacile": 3201,
      "Ġfaits": 3202,
      "Ġforte": 3203,
      "ĠfÃ©vrier": 3204,
      "Ġpuissance": 3205,
      "ĠmÃ©can": 3206,
      "ere": 3207,
      "ercice": 3208,
      "Ġmeilleure": 3209,
      "tiers": 3210,
      "Ġcanadi": 3211,
      "lÃł": 3212,
      "Ġgenre": 3213,
      "Ex": 3214,
      "Ġ'": 3215,
      "Ġsociale": 3216,
      "esprit": 3217,
      "TI": 3218,
      "Ã©ma": 3219,
      "tionnelle": 3220,
      "uels": 3221,
      "Ġinstitu": 3222,
      "ĠfÃ©": 3223,
      "oyer": 3224,
      "lÃ©g": 3225,
      "Ġsalle": 3226,
      "Ġ$": 3227,
      "ĠdÃ©pend": 3228,
      "ral": 3229,
      "Ġjouer": 3230,
      "Ġtotal": 3231,
      "Ġlaisser": 3232,
      "Ġtechnique": 3233,
      "Ġpied": 3234,
      "uridi": 3235,
      "asses": 3236,
      "Ġmeur": 3237,
      "osp": 3238,
      "Ġderniers": 3239,
      "Ġprincipe": 3240,
      "ĠGe": 3241,
      "Ġsubst": 3242,
      "Ġoppos": 3243,
      "ister": 3244,
      "onner": 3245,
      "Elle": 3246,
      "Ġcourse": 3247,
      "dom": 3248,
      "ect": 3249,
      "Ġami": 3250,
      "Ġsuivre": 3251,
      "ĠAlors": 3252,
      "Ã©cole": 3253,
      "Ġresponsable": 3254,
      "Ġsensi": 3255,
      "intes": 3256,
      "Ġpouss": 3257,
      "Ġdesc": 3258,
      "Ġcampagne": 3259,
      "ĠautoritÃ©s": 3260,
      "Ġrester": 3261,
      "chi": 3262,
      "Ġsecteur": 3263,
      "Ġsouhait": 3264,
      "ĠdÃ©part": 3265,
      "orge": 3266,
      "Ã©rations": 3267,
      "Ġdipl": 3268,
      "Ġsolution": 3269,
      "Ġsait": 3270,
      "ĠSer": 3271,
      "Ġcommuni": 3272,
      "emb": 3273,
      "dÃ©": 3274,
      "tiÃ¨re": 3275,
      "ick": 3276,
      "ĠsÃ©lection": 3277,
      "Ġconcent": 3278,
      "UR": 3279,
      "Ġanglais": 3280,
      "ÙĦ": 3281,
      "org": 3282,
      "Ġdirecteur": 3283,
      "issant": 3284,
      "Ġdeven": 3285,
      "cie": 3286,
      "Ġhaute": 3287,
      "UE": 3288,
      "ories": 3289,
      "Ġwh": 3290,
      "ano": 3291,
      "Ġcommencer": 3292,
      "ĠannoncÃ©": 3293,
      "Ġquelle": 3294,
      "Ġsoins": 3295,
      "Ġaffec": 3296,
      "Ġglob": 3297,
      "Ġpron": 3298,
      "Ġpropres": 3299,
      "Ġjuridi": 3300,
      "ustr": 3301,
      "idÃ©e": 3302,
      "expl": 3303,
      "ĠQuÃ©b": 3304,
      "ĠÃ©viter": 3305,
      "ĠdÃ©li": 3306,
      "Ġdiv": 3307,
      "VI": 3308,
      "ardin": 3309,
      "Ġamis": 3310,
      "cool": 3311,
      "Ġpourraient": 3312,
      "ormais": 3313,
      "ĠcomplÃ¨tement": 3314,
      "information": 3315,
      "ĠeuropÃ©enne": 3316,
      "ĠutilisÃ©s": 3317,
      "onique": 3318,
      "enses": 3319,
      "urr": 3320,
      "Ġparle": 3321,
      "tor": 3322,
      "Ø§": 3323,
      "ara": 3324,
      "ustrie": 3325,
      "appr": 3326,
      "ĠÐ": 3327,
      "Ġexam": 3328,
      "Ġsh": 3329,
      "Ġclassi": 3330,
      "appro": 3331,
      "Ã¨ce": 3332,
      "Ġchir": 3333,
      "gÃ©e": 3334,
      "Ġthat": 3335,
      "Ġmultip": 3336,
      "Ġdistin": 3337,
      "men": 3338,
      "Ġrappel": 3339,
      "Ġchiff": 3340,
      "Ġlien": 3341,
      "Ġdra": 3342,
      "Ġsangu": 3343,
      "Ġconsommation": 3344,
      "ood": 3345,
      "Ġcommerce": 3346,
      "exc": 3347,
      "sements": 3348,
      "ands": 3349,
      "ĠBe": 3350,
      "Ġcy": 3351,
      "ombre": 3352,
      "ĠnÃ©cessaires": 3353,
      "espace": 3354,
      "Ġappare": 3355,
      "cal": 3356,
      "Ġkm": 3357,
      "ĠprocÃ©dure": 3358,
      "Ġversion": 3359,
      "lusion": 3360,
      "Ġactuellement": 3361,
      "Ġexplique": 3362,
      "ĠRob": 3363,
      "ĠimmÃ©diatement": 3364,
      "ĠmÃªmes": 3365,
      "rÃ¨s": 3366,
      "Ġterritoire": 3367,
      "orn": 3368,
      "ymp": 3369,
      "Ġanimaux": 3370,
      "ource": 3371,
      "veux": 3372,
      "eth": 3373,
      "Ġpetites": 3374,
      "ĠtÃ©lÃ©ph": 3375,
      "oign": 3376,
      "angÃ©": 3377,
      "ĠderriÃ¨re": 3378,
      "ĠLorsque": 3379,
      "Ġailleurs": 3380,
      "Ġmilliards": 3381,
      "ĠcatÃ©g": 3382,
      "ĠÅĵuvre": 3383,
      "ĠBl": 3384,
      "ĠDÃ©": 3385,
      "import": 3386,
      "arm": 3387,
      "ĠYork": 3388,
      "Ġconj": 3389,
      "ĠprÃ©p": 3390,
      "ĠempÃª": 3391,
      "Ġdirect": 3392,
      "illi": 3393,
      "Ġsuper": 3394,
      "culaire": 3395,
      "Ġsuivant": 3396,
      "Ġconcep": 3397,
      "Ġbrit": 3398,
      "ĠRÃ©publique": 3399,
      "ailles": 3400,
      "liquer": 3401,
      "truction": 3402,
      "Ġressources": 3403,
      "Ġspect": 3404,
      "Ġvivre": 3405,
      "Ġterrain": 3406,
      "Ġperform": 3407,
      "ario": 3408,
      "onf": 3409,
      "Ã§ant": 3410,
      "ĠBer": 3411,
      "Ġconcerne": 3412,
      "Ġlutte": 3413,
      "Ġfit": 3414,
      "uler": 3415,
      "Ġsuivi": 3416,
      "Ġposi": 3417,
      "Ġmauvais": 3418,
      "ĠdÃ©terminer": 3419,
      "ĠSch": 3420,
      "ĠmÃ¨tres": 3421,
      "Ġprincipalement": 3422,
      "Ġdevenu": 3423,
      "ĠdÃ©pos": 3424,
      "Ġdiab": 3425,
      "Ã¢tre": 3426,
      "oe": 3427,
      "Ġaliments": 3428,
      "ary": 3429,
      "Ġdevait": 3430,
      "Ġcitoy": 3431,
      "Ġphilos": 3432,
      "Ġzones": 3433,
      "aute": 3434,
      "aw": 3435,
      "ĠdemandÃ©": 3436,
      "Ġdemi": 3437,
      "Ġant": 3438,
      "Ġpein": 3439,
      "aller": 3440,
      "Ġsold": 3441,
      "ls": 3442,
      "ĠrÃ©pondre": 3443,
      "ĠmoitiÃ©": 3444,
      "osc": 3445,
      "ingt": 3446,
      "Ġgaranti": 3447,
      "igue": 3448,
      "Ġsug": 3449,
      "Ġpau": 3450,
      "utiliser": 3451,
      "ĠpiÃ¨ce": 3452,
      "ĠmalgrÃ©": 3453,
      "lation": 3454,
      "Ġchangements": 3455,
      "ĠpubliÃ©": 3456,
      "Ġexac": 3457,
      "Ġperdu": 3458,
      "Ġseconde": 3459,
      "Ġlois": 3460,
      "ĠEurope": 3461,
      "Ġlire": 3462,
      "igu": 3463,
      "ĠtrouvÃ©": 3464,
      "Ġvillage": 3465,
      "Ġmach": 3466,
      "Ġcontact": 3467,
      "Ġadul": 3468,
      "Ġbesoins": 3469,
      "Ġlettre": 3470,
      "Ġmaxim": 3471,
      "Ġorigin": 3472,
      "ĠCO": 3473,
      "ĠComment": 3474,
      "Ġpresse": 3475,
      "Ġperd": 3476,
      "ĠbÃ©nÃ©fici": 3477,
      "Ġpeur": 3478,
      "ĠdÃ©velopper": 3479,
      "ley": 3480,
      "Ġsan": 3481,
      "ĠchaÃ®": 3482,
      "Ġinstall": 3483,
      "Ġaim": 3484,
      "ĠinfÃ©ri": 3485,
      "anim": 3486,
      "gique": 3487,
      "itesse": 3488,
      "ares": 3489,
      "ertains": 3490,
      "Ġsymb": 3491,
      "Ġsoli": 3492,
      "Ġbras": 3493,
      "annique": 3494,
      "Ġuniquement": 3495,
      "Ġfacteurs": 3496,
      "riez": 3497,
      "Ġsocial": 3498,
      "Ġlo": 3499,
      "tress": 3500,
      "Ġrespect": 3501,
      "ĠQuand": 3502,
      "Ġfonctionn": 3503,
      "ĠcafÃ©": 3504,
      "Est": 3505,
      "Ġvirus": 3506,
      "Ġinternationale": 3507,
      "Ġpermettre": 3508,
      "Ġbac": 3509,
      "Ġchanger": 3510,
      "ĠdÃ©l": 3511,
      "urant": 3512,
      "mat": 3513,
      "ĠBel": 3514,
      "Ġfroi": 3515,
      "Ġmanger": 3516,
      "ĠÃ©lÃ¨": 3517,
      "Ġchambre": 3518,
      "Ġaction": 3519,
      "ĠQuÃ©bec": 3520,
      "tionnel": 3521,
      "ĠDav": 3522,
      "avais": 3523,
      "Ã©rapie": 3524,
      "Ġpaix": 3525,
      "Ġfonds": 3526,
      "Ġindustri": 3527,
      "Ġsouhaite": 3528,
      "ĠmajoritÃ©": 3529,
      "mission": 3530,
      "ĠpropriÃ©tÃ©": 3531,
      "tir": 3532,
      "Ġcondition": 3533,
      "Ġremplac": 3534,
      "Ġconfiance": 3535,
      "sh": 3536,
      "old": 3537,
      "cides": 3538,
      "Ġcheveux": 3539,
      "ĠrÃ©par": 3540,
      "Ġsent": 3541,
      "dr": 3542,
      "Ġinflu": 3543,
      "aritÃ©": 3544,
      "uk": 3545,
      "ĠindiquÃ©": 3546,
      "oux": 3547,
      "US": 3548,
      "met": 3549,
      "udg": 3550,
      "UniversitÃ©": 3551,
      "Ġsociaux": 3552,
      "Ġrestaur": 3553,
      "Ġnaissance": 3554,
      "Ġta": 3555,
      "opÃ©ration": 3556,
      "chement": 3557,
      "ĠWeb": 3558,
      "Ġpois": 3559,
      "este": 3560,
      "ativement": 3561,
      "Ã¨que": 3562,
      "ĠdÃ©sormais": 3563,
      "iver": 3564,
      "amour": 3565,
      "Ġglu": 3566,
      "Ces": 3567,
      "nies": 3568,
      "ĠrÃ©gions": 3569,
      "Ġcop": 3570,
      "Ã©tab": 3571,
      "liss": 3572,
      "Ġvictoire": 3573,
      "ĠrÃ©fÃ©rence": 3574,
      "ĠÃ©limin": 3575,
      "Ġenfin": 3576,
      "Ġcomportement": 3577,
      "Ġaffaires": 3578,
      "ama": 3579,
      "atisf": 3580,
      "Ġvilles": 3581,
      "yg": 3582,
      "Ġriches": 3583,
      "Ġprison": 3584,
      "oll": 3585,
      "Ġconstat": 3586,
      "Ã§u": 3587,
      "car": 3588,
      "yth": 3589,
      "rimer": 3590,
      "bli": 3591,
      "ĠcÃ©r": 3592,
      "Ġproche": 3593,
      "Ġul": 3594,
      "Ġprofesse": 3595,
      "oz": 3596,
      "lacement": 3597,
      "Ã©rant": 3598,
      "Ã©rable": 3599,
      "Ġoffre": 3600,
      "Ã©conomie": 3601,
      "Ġarm": 3602,
      "Ġformes": 3603,
      "del": 3604,
      "ĠtÃ´t": 3605,
      "ĠdiffÃ©rence": 3606,
      "Ġadap": 3607,
      "Ġvisage": 3608,
      "ancien": 3609,
      "Ã©ros": 3610,
      "Ġclin": 3611,
      "ĠidÃ©": 3612,
      "Ġaugmentation": 3613,
      "roph": 3614,
      "ĠtÃ¢": 3615,
      "chent": 3616,
      "Ã©volution": 3617,
      "Ġfich": 3618,
      "Ġlivres": 3619,
      "Ġaccompagn": 3620,
      "abil": 3621,
      "ublic": 3622,
      "administration": 3623,
      "expÃ©ri": 3624,
      "ays": 3625,
      "rement": 3626,
      "Ġfinalement": 3627,
      "stitu": 3628,
      "Ġcommune": 3629,
      "Ġcontinue": 3630,
      "Ġpassage": 3631,
      "....": 3632,
      "ĠsystÃ¨mes": 3633,
      "Ġcat": 3634,
      "Ġconsac": 3635,
      "olique": 3636,
      "times": 3637,
      "Ġdeme": 3638,
      "Ġcourt": 3639,
      "ĠÃ©ner": 3640,
      "Ġimpos": 3641,
      "AC": 3642,
      "Ġdiagnostic": 3643,
      "Ġprincipaux": 3644,
      "Ġrefus": 3645,
      "Ġplein": 3646,
      "Ġcompagnie": 3647,
      "ĠmÃ©thodes": 3648,
      "ym": 3649,
      "ĠII": 3650,
      "ĠSte": 3651,
      "ĠdÃ©cidÃ©": 3652,
      "isÃ©": 3653,
      "Ã¨les": 3654,
      "Ġgui": 3655,
      "ĠdÃ©v": 3656,
      "ĠprÃªt": 3657,
      "Ġprol": 3658,
      "Ġcancer": 3659,
      "Ġdiverses": 3660,
      "uelles": 3661,
      "ctures": 3662,
      "Ġsurv": 3663,
      "Ġchercheurs": 3664,
      "ppe": 3665,
      "Ġinternational": 3666,
      "Ġchat": 3667,
      "Ġactions": 3668,
      "Ġpuisse": 3669,
      "Ġcath": 3670,
      "aissent": 3671,
      "Ġtechniques": 3672,
      "veaux": 3673,
      "ĠQue": 3674,
      "unitÃ©": 3675,
      "Ġai": 3676,
      "ĠtempÃ©rature": 3677,
      "Ġhtt": 3678,
      "Ġprincipale": 3679,
      "Ġcolon": 3680,
      "Ġhabitants": 3681,
      "ĠChe": 3682,
      "Ġprojets": 3683,
      "Ġtransport": 3684,
      "ĠhÃ´": 3685,
      "inst": 3686,
      "Ġdistance": 3687,
      "Ġdavantage": 3688,
      "ĠbÃ©b": 3689,
      "Ġatteint": 3690,
      "intÃ©rÃªt": 3691,
      "ĠpossibilitÃ©": 3692,
      "ĠpiÃ¨ces": 3693,
      "Ġminim": 3694,
      "ĠcaractÃ©ristiques": 3695,
      "urance": 3696,
      "Ġvitesse": 3697,
      "Ġvisite": 3698,
      "angere": 3699,
      "Re": 3700,
      "iez": 3701,
      "Ġdevraient": 3702,
      "obs": 3703,
      "lect": 3704,
      "Ġamb": 3705,
      "ancement": 3706,
      "Ġred": 3707,
      "Ġporter": 3708,
      "Ã©tend": 3709,
      "ĠextrÃªme": 3710,
      "Ã¢teau": 3711,
      "Ġpreuve": 3712,
      "Ġfabric": 3713,
      "ĠmÃ©dias": 3714,
      "Ġbelle": 3715,
      "ĠrÃ©cup": 3716,
      "Ġvenir": 3717,
      "actions": 3718,
      "Ġmariage": 3719,
      "ĠDon": 3720,
      "mentation": 3721,
      "Ġaj": 3722,
      "Ġtoi": 3723,
      "oici": 3724,
      "Ġcollab": 3725,
      "Ġplais": 3726,
      "ĠcÃ©lÃ¨bre": 3727,
      "Avec": 3728,
      "istra": 3729,
      "eut": 3730,
      "Ġclub": 3731,
      "Ġfacilement": 3732,
      "oulez": 3733,
      "ĠcaractÃ¨re": 3734,
      "exist": 3735,
      "Union": 3736,
      "ologue": 3737,
      "Ġhumain": 3738,
      "Ġpieds": 3739,
      ".)": 3740,
      "Ġcontraire": 3741,
      "mier": 3742,
      "ĠTur": 3743,
      "Ġtroubles": 3744,
      "ĠÃ©di": 3745,
      "Ġcerveau": 3746,
      "Ġstress": 3747,
      "Ã©sus": 3748,
      "ĠrÃ¨gle": 3749,
      "entrÃ©e": 3750,
      "Ġsept": 3751,
      "chÃ©e": 3752,
      "Ġsucre": 3753,
      "rais": 3754,
      "ĠsÃ©n": 3755,
      "analyse": 3756,
      "Ġposte": 3757,
      "Ġcommand": 3758,
      "Ġdangere": 3759,
      "Ġwith": 3760,
      "Ġfilles": 3761,
      "Ġsauv": 3762,
      "Ġmu": 3763,
      "endra": 3764,
      "ĠFranÃ§ais": 3765,
      "organisation": 3766,
      "Ġfaisait": 3767,
      "position": 3768,
      "Ġplate": 3769,
      "Ġbour": 3770,
      "Ġcourant": 3771,
      "Ġfrom": 3772,
      "Ġtend": 3773,
      "cemment": 3774,
      "ĠNo": 3775,
      "Ġstyle": 3776,
      "Ġpropose": 3777,
      "ĠÃ©tudiants": 3778,
      "riques": 3779,
      "Ġinten": 3780,
      "ĠbrÃ»": 3781,
      "dis": 3782,
      "Ġnourriture": 3783,
      "oot": 3784,
      "Ġmodifier": 3785,
      "iz": 3786,
      "glet": 3787,
      "Ġprofond": 3788,
      "Ġpopulaire": 3789,
      "ousse": 3790,
      "Ġfou": 3791,
      "Ã©ducation": 3792,
      "ĠGo": 3793,
      "ĠdÃ©sign": 3794,
      "ĠSal": 3795,
      "Ã¨ve": 3796,
      "ĠBen": 3797,
      "Ġsites": 3798,
      "ĠDu": 3799,
      "AL": 3800,
      "Ġpost": 3801,
      "Ġutilisant": 3802,
      "rire": 3803,
      "Ġarticles": 3804,
      "occasion": 3805,
      "cÃ©": 3806,
      "Ġrare": 3807,
      "hÃ©s": 3808,
      "Ġinvestis": 3809,
      "alog": 3810,
      "Ġrusse": 3811,
      "Ġbureau": 3812,
      "Ġsatisf": 3813,
      "atrice": 3814,
      "Ġfamili": 3815,
      "Ġclients": 3816,
      "Ġpleine": 3817,
      "Ġbudg": 3818,
      "dici": 3819,
      "we": 3820,
      "tellig": 3821,
      "jour": 3822,
      "ĠpÃ©t": 3823,
      "Ġmilitaires": 3824,
      "Ġpenser": 3825,
      "rÃ©es": 3826,
      "Ġvision": 3827,
      "mine": 3828,
      "to": 3829,
      "osse": 3830,
      "ĠHe": 3831,
      "ville": 3832,
      "Ġconnaissance": 3833,
      "Ġjoueurs": 3834,
      "Ġfonctions": 3835,
      "gleterre": 3836,
      "agent": 3837,
      "Ġpartis": 3838,
      "entraÃ®": 3839,
      "ĠOu": 3840,
      "ĠcrÃ©Ã©": 3841,
      "Ġcroy": 3842,
      "ĠdÃ©sir": 3843,
      "Ġfron": 3844,
      "pt": 3845,
      "ĠministÃ¨re": 3846,
      "lure": 3847,
      "ranÃ§ois": 3848,
      "ĠrÃ©serv": 3849,
      "ministra": 3850,
      "Ġvitam": 3851,
      "rits": 3852,
      "Ġancien": 3853,
      "Ã©tr": 3854,
      "Ġmur": 3855,
      "neur": 3856,
      "Is": 3857,
      "ĠprotÃ©ger": 3858,
      "cent": 3859,
      "ĠlÃ©gis": 3860,
      "Ġconduit": 3861,
      "igneur": 3862,
      "Ġproduire": 3863,
      "Ġsortie": 3864,
      "oppos": 3865,
      "Ġsortir": 3866,
      "her": 3867,
      "Ġerre": 3868,
      "Ġlab": 3869,
      "Ġhistorique": 3870,
      "Ġanalys": 3871,
      "Ġdiman": 3872,
      "ĠTe": 3873,
      "ĠPe": 3874,
      "Ġnu": 3875,
      "Ġsignal": 3876,
      "ky": 3877,
      "Ġfournir": 3878,
      "nous": 3879,
      "ĠCommission": 3880,
      "mite": 3881,
      "alisÃ©": 3882,
      "fiÃ©e": 3883,
      "ĠdÃ©te": 3884,
      "Ð¾": 3885,
      "Ġperdre": 3886,
      "pital": 3887,
      "yr": 3888,
      "Ġur": 3889,
      "rad": 3890,
      "chÃ©s": 3891,
      "dez": 3892,
      "Ġhors": 3893,
      "rain": 3894,
      "Ġcommande": 3895,
      "Ġtribunal": 3896,
      "Ġmorts": 3897,
      "ĠfrÃ¨re": 3898,
      "Ġtex": 3899,
      "Ġstock": 3900,
      "ulÃ©": 3901,
      "Ġcro": 3902,
      "aig": 3903,
      "ĠconnaÃ®tre": 3904,
      "Ġtendance": 3905,
      "Ġgrossesse": 3906,
      "Ġalimentaire": 3907,
      "Ġrecherches": 3908,
      "Sur": 3909,
      "oÃ®": 3910,
      "Ġniveaux": 3911,
      "Ġfus": 3912,
      "Ġprati": 3913,
      "pro": 3914,
      "ĠutilisÃ©e": 3915,
      "tÃ©rÃªts": 3916,
      "credi": 3917,
      "ĠLouis": 3918,
      "Ġlet": 3919,
      "Ġoutil": 3920,
      "Ġcarte": 3921,
      "Ġsources": 3922,
      "Ġretrouv": 3923,
      "ĠresponsabilitÃ©": 3924,
      "Ġvolu": 3925,
      "ĠsociÃ©tÃ©s": 3926,
      "ĠreprÃ©sente": 3927,
      "ĠGrand": 3928,
      "Ġpuisque": 3929,
      "ĠphÃ©nom": 3930,
      "industrie": 3931,
      "Ġimpli": 3932,
      "Ġsusp": 3933,
      "Comme": 3934,
      "aliser": 3935,
      "Ġcontexte": 3936,
      "Ġfurent": 3937,
      "Ġdimanche": 3938,
      "Ġchoisir": 3939,
      "ĠChrist": 3940,
      "ĠsituÃ©": 3941,
      "Ou": 3942,
      "ball": 3943,
      "Ġcivil": 3944,
      "astique": 3945,
      "Ġtal": 3946,
      "Ġphilosoph": 3947,
      "ll": 3948,
      "Ġvingt": 3949,
      "estation": 3950,
      "Ġroman": 3951,
      "Ġdomm": 3952,
      "Ġcommunaut": 3953,
      "talie": 3954,
      "Ġneur": 3955,
      "Ġindique": 3956,
      "Ġcontinuer": 3957,
      "Ã´me": 3958,
      "ĠdÃ©mar": 3959,
      "Ġaf": 3960,
      "Ġdouble": 3961,
      "Ã©taient": 3962,
      "assin": 3963,
      "'s": 3964,
      "Ġvite": 3965,
      "Ġlundi": 3966,
      "tiennent": 3967,
      "ĠvÃ©ritable": 3968,
      "application": 3969,
      "Ġ|": 3970,
      "phe": 3971,
      "ĠlittÃ©r": 3972,
      "Ġtraiter": 3973,
      "of": 3974,
      "quÃ©es": 3975,
      "ologies": 3976,
      "ultÃ©": 3977,
      "Ġdiminu": 3978,
      "image": 3979,
      "Ġrisques": 3980,
      "ive": 3981,
      "glise": 3982,
      "Ġrob": 3983,
      "ĠconsidÃ©rÃ©": 3984,
      "Ã¨ces": 3985,
      "ĠMin": 3986,
      "Ġcontient": 3987,
      "Ġconsiste": 3988,
      "cule": 3989,
      "ĠÃ©lec": 3990,
      "Ġtre": 3991,
      "Ġprofonde": 3992,
      "rid": 3993,
      "ĠMus": 3994,
      "Ġmicro": 3995,
      "utÃ©": 3996,
      "rande": 3997,
      "ĠenquÃªte": 3998,
      "Ġjoue": 3999,
      "iÃ¨res": 4000,
      "Ġsole": 4001,
      "Ġvaleurs": 4002,
      "Ġdocuments": 4003,
      "Ġrense": 4004,
      "Ġdossi": 4005,
      "ĠPas": 4006,
      "ames": 4007,
      "Ġprogrammes": 4008,
      "Ġcarb": 4009,
      "ourir": 4010,
      "eaux": 4011,
      "Ġfaibles": 4012,
      "ĠJÃ©sus": 4013,
      "ĠDE": 4014,
      "usses": 4015,
      "Ġrejet": 4016,
      "Ġhom": 4017,
      "Ġsil": 4018,
      "ĠLond": 4019,
      "Ġscientifiques": 4020,
      "Ġlait": 4021,
      "demment": 4022,
      "Ġarmes": 4023,
      "Ġvendredi": 4024,
      "alcool": 4025,
      "lammation": 4026,
      "ĠmÃ©moire": 4027,
      "Ã©der": 4028,
      "Ġble": 4029,
      "olÃ©": 4030,
      "augment": 4031,
      "ĠdÃ©par": 4032,
      "quet": 4033,
      "Ġconscience": 4034,
      "Ġcircons": 4035,
      "ĠÃ©poque": 4036,
      "ck": 4037,
      "rav": 4038,
      "uration": 4039,
      "ĠcollÃ¨": 4040,
      "Ġcapitale": 4041,
      "Ġfruits": 4042,
      "Ġentier": 4043,
      "Ġimages": 4044,
      "ĠPierre": 4045,
      "ĠXI": 4046,
      "nÃ©e": 4047,
      "Ġmission": 4048,
      "dia": 4049,
      "ĠexpÃ©rience": 4050,
      "run": 4051,
      "Ġvou": 4052,
      "Ġinterpr": 4053,
      "Ġnutri": 4054,
      "Ġprim": 4055,
      "Ġkil": 4056,
      "Mar": 4057,
      "huile": 4058,
      "sons": 4059,
      "ĠÙ": 4060,
      "Ġvoulez": 4061,
      "lever": 4062,
      "itant": 4063,
      "Ġarch": 4064,
      "Ġcombin": 4065,
      "ĠÃ©lectr": 4066,
      "Ġlesquelles": 4067,
      "Ġjoueur": 4068,
      "Ġperman": 4069,
      "Ġouvert": 4070,
      "cepti": 4071,
      "umÃ©": 4072,
      "Ġsame": 4073,
      "Ac": 4074,
      "Ġsoleil": 4075,
      "orde": 4076,
      "Ġpeux": 4077,
      "otte": 4078,
      "ĠdÃ©mont": 4079,
      "Ġsexe": 4080,
      "miques": 4081,
      "ĠrÃ©d": 4082,
      "ĠfÃ©min": 4083,
      "ĠconsÃ©quences": 4084,
      "effet": 4085,
      "Ġsoup": 4086,
      "ĠdÃ©r": 4087,
      "otes": 4088,
      "Ġcauses": 4089,
      "ĠPl": 4090,
      "ĠMc": 4091,
      "Ã®le": 4092,
      "ĠvolontÃ©": 4093,
      "Ġmuni": 4094,
      "Ġ+": 4095,
      "Ġdivis": 4096,
      "ĠidÃ©e": 4097,
      "ossible": 4098,
      "Ã¨ge": 4099,
      "Ġfonctionnement": 4100,
      "Ġbre": 4101,
      "Ġenvironnement": 4102,
      "Ġdistribu": 4103,
      "Ġendroit": 4104,
      "Ġvert": 4105,
      "Ġvictime": 4106,
      "ĊĊ": 4107,
      "ek": 4108,
      "Ġpouvons": 4109,
      "Ġhumaine": 4110,
      "LE": 4111,
      "raÃ«l": 4112,
      "ouest": 4113,
      "ĠcompÃ©ti": 4114,
      "ultÃ©s": 4115,
      "Ġsigne": 4116,
      "ĠLib": 4117,
      "Ġmontant": 4118,
      "rons": 4119,
      "Ġmasse": 4120,
      "Ġaband": 4121,
      "Ġbiens": 4122,
      "environ": 4123,
      "Ã©tais": 4124,
      "Ã©rences": 4125,
      "importe": 4126,
      "Ġlieux": 4127,
      "Ġpermettant": 4128,
      "ĠactivitÃ©": 4129,
      "esses": 4130,
      "Ġtravailleurs": 4131,
      "Ġpourtant": 4132,
      "Ġcorrec": 4133,
      "Ġintro": 4134,
      "Ġvin": 4135,
      "ĠcoÃ»t": 4136,
      "osph": 4137,
      "bert": 4138,
      "Ġrapports": 4139,
      "Ġclair": 4140,
      "vitÃ©": 4141,
      "ĠrÃ©cemment": 4142,
      "Ġmand": 4143,
      "Ġdiscours": 4144,
      "ĠFor": 4145,
      "Ġvag": 4146,
      "www": 4147,
      "uves": 4148,
      "Ġtraite": 4149,
      "Bien": 4150,
      "ĠchrÃ©": 4151,
      "Ġvain": 4152,
      "ĠmontrÃ©": 4153,
      "ĠbactÃ©ri": 4154,
      "ĠEst": 4155,
      "ĠmÃ©lange": 4156,
      "environnement": 4157,
      "roÃ¯": 4158,
      "Ġap": 4159,
      "mÃªmes": 4160,
      "Ġcommunication": 4161,
      "Ġarrive": 4162,
      "Ġsomm": 4163,
      "Ġlac": 4164,
      "oirs": 4165,
      "Ġalli": 4166,
      "Ġstade": 4167,
      "Ġmessage": 4168,
      "Ġvictimes": 4169,
      "entrer": 4170,
      "Ġclient": 4171,
      "ĠvÃ©ritÃ©": 4172,
      "Ġray": 4173,
      "ĠFin": 4174,
      "ĠamÃ©liorer": 4175,
      "Ġaigu": 4176,
      "aissez": 4177,
      "ĠPaul": 4178,
      "Ġaugmente": 4179,
      "Ġcolonne": 4180,
      "Ġjeudi": 4181,
      "Ġobtenu": 4182,
      "Ġweb": 4183,
      "gel": 4184,
      "Ġiss": 4185,
      "Ġatteindre": 4186,
      "Ġmeilleurs": 4187,
      "Ġquartier": 4188,
      "Ġtenu": 4189,
      "Ġcapable": 4190,
      "expÃ©rience": 4191,
      "Ġrang": 4192,
      "Ġchans": 4193,
      "ington": 4194,
      "hi": 4195,
      "amÃ©li": 4196,
      "orth": 4197,
      "Ġja": 4198,
      "ĠSy": 4199,
      "Ã©taires": 4200,
      "ĠnÃ©goci": 4201,
      "titution": 4202,
      "ĠÃ©vÃ©nements": 4203,
      "Ġgagner": 4204,
      "Ġappropri": 4205,
      "Ġhuit": 4206,
      "ĠpropriÃ©taire": 4207,
      "chir": 4208,
      "moins": 4209,
      "Ġenseign": 4210,
      "ĠÃ©mo": 4211,
      "itude": 4212,
      "Ġpermettent": 4213,
      "ĠRoyaume": 4214,
      "Ġcritique": 4215,
      "Ġdyn": 4216,
      "ĠcÃ´t": 4217,
      "Ġpayer": 4218,
      "assÃ©": 4219,
      "Ġgarder": 4220,
      "Ġavis": 4221,
      "ĠnumÃ©ro": 4222,
      "Ġfondament": 4223,
      "ĠajoutÃ©": 4224,
      "Ġprofesseur": 4225,
      "exercice": 4226,
      "Ġsuivants": 4227,
      "dessous": 4228,
      "ĠdÃ©fini": 4229,
      "Ġgrave": 4230,
      "ros": 4231,
      "ĠAc": 4232,
      "ĠTerre": 4233,
      "Ġorganes": 4234,
      "tÃ©rieure": 4235,
      "Ġlignes": 4236,
      "Ã¼": 4237,
      "Ġmercredi": 4238,
      "Ġimportants": 4239,
      "Ġviolence": 4240,
      "Ġmarche": 4241,
      "Ġfilms": 4242,
      "Ġcentrale": 4243,
      "IT": 4244,
      "icale": 4245,
      "absence": 4246,
      "ĠComp": 4247,
      "ĠÃ©lections": 4248,
      "tte": 4249,
      "Ġmentionn": 4250,
      "Ġveux": 4251,
      "ĠVal": 4252,
      "Ġmardi": 4253,
      "onge": 4254,
      "Ġhumains": 4255,
      "Ãªche": 4256,
      "Ġattention": 4257,
      "uclÃ©": 4258,
      "Ġtests": 4259,
      "ĠSu": 4260,
      "ĠJac": 4261,
      "Ġ=": 4262,
      "Ġwe": 4263,
      "ĠCharles": 4264,
      "Ġadministra": 4265,
      "Ġtoutefois": 4266,
      "ĠspÃ©cifique": 4267,
      "Ġbritannique": 4268,
      "Ġretrouve": 4269,
      "ĠmaÃ®tre": 4270,
      "Ġsignific": 4271,
      "Ġphoto": 4272,
      "anie": 4273,
      "Lorsque": 4274,
      "oil": 4275,
      "Ġconception": 4276,
      "ray": 4277,
      "Ġrevenu": 4278,
      "alie": 4279,
      "ĠQuel": 4280,
      "Ã©rale": 4281,
      "Ġenregistr": 4282,
      "ĠthÃ©orie": 4283,
      "Ġexcell": 4284,
      "Plus": 4285,
      "itent": 4286,
      "ĠÃ©m": 4287,
      "ricul": 4288,
      "ĠDavid": 4289,
      "ĠPuis": 4290,
      "fr": 4291,
      "Ġconver": 4292,
      "Ġobjectifs": 4293,
      "Ġconform": 4294,
      "Ġx": 4295,
      "Ġdat": 4296,
      "ĠParti": 4297,
      "urÃ©e": 4298,
      "ĠJus": 4299,
      "ĠmÃ©n": 4300,
      "Ġfavor": 4301,
      "Ġsuivante": 4302,
      "Ġtor": 4303,
      "ĠpensÃ©e": 4304,
      "ĠAss": 4305,
      "Ġprovince": 4306,
      "raine": 4307,
      "ĠpÃ©tro": 4308,
      "Ġattend": 4309,
      "Ġlettres": 4310,
      "aleur": 4311,
      "olutions": 4312,
      "avez": 4313,
      "iditÃ©": 4314,
      "Ph": 4315,
      "Ġnett": 4316,
      "The": 4317,
      "accÃ¨s": 4318,
      "ĠrÃ©guliÃ¨rement": 4319,
      "Ġstu": 4320,
      "uisse": 4321,
      "ju": 4322,
      "ĠToute": 4323,
      "ĠÃ©l": 4324,
      "ĠidÃ©es": 4325,
      "ĠmÃ©decins": 4326,
      "nov": 4327,
      "Ġby": 4328,
      "atures": 4329,
      "Ġsignes": 4330,
      "Ġlecture": 4331,
      "oncer": 4332,
      "emploi": 4333,
      "nÃ©s": 4334,
      "Ġrendu": 4335,
      "Ġmunicip": 4336,
      "Ġsoldats": 4337,
      "Ġchance": 4338,
      "Ġspectac": 4339,
      "Ġmouvements": 4340,
      "ks": 4341,
      "blement": 4342,
      "Ġlead": 4343,
      "Ġjudici": 4344,
      "obil": 4345,
      "ilibre": 4346,
      "itr": 4347,
      "Ġaugmenter": 4348,
      "Ġrespir": 4349,
      "Ġquant": 4350,
      "ott": 4351,
      "gÃ©n": 4352,
      "Ġare": 4353,
      "AT": 4354,
      "Ġtenir": 4355,
      "Ġaccus": 4356,
      "ause": 4357,
      "ĠvÃ©hicules": 4358,
      "ĠÃ©lÃ¨ves": 4359,
      "Ġfamilles": 4360,
      "ĠApp": 4361,
      "ĠElles": 4362,
      "Ġtran": 4363,
      "Ġmens": 4364,
      "Ġcontac": 4365,
      "Ġprogressi": 4366,
      "Ġhorm": 4367,
      "Ġcomplexe": 4368,
      "ĠâĢ¦": 4369,
      "Ġsin": 4370,
      "Ã¡": 4371,
      "Ġutile": 4372,
      "avenir": 4373,
      "ĠapprÃ©": 4374,
      "ĠTu": 4375,
      "Ġutilise": 4376,
      "Ġpatri": 4377,
      "Ġsecr": 4378,
      "ĠAnd": 4379,
      "Ġdisponible": 4380,
      "Ġreb": 4381,
      "ĠsupÃ©rieur": 4382,
      "Ġmaintenir": 4383,
      "Ġmoderne": 4384,
      "ĠSes": 4385,
      "ĠdÃ©cÃ¨s": 4386,
      "Ġmondial": 4387,
      "ĠamÃ©ricains": 4388,
      "Ġfinale": 4389,
      "ĠprocÃ¨s": 4390,
      "Ġsuivantes": 4391,
      "Ġavantages": 4392,
      "itÃ©e": 4393,
      "Ġbataille": 4394,
      "Ġscientifique": 4395,
      "tiens": 4396,
      "ĠrÃ©alisÃ©": 4397,
      "Ġcre": 4398,
      "ĠtÃ©lÃ©vision": 4399,
      "Ġsor": 4400,
      "ini": 4401,
      "ya": 4402,
      "Ġrasse": 4403,
      "erg": 4404,
      "ĠopÃ©ration": 4405,
      "Ġdisponibles": 4406,
      "Ġcouple": 4407,
      "Ġgal": 4408,
      "ĠUS": 4409,
      "Åĵuvre": 4410,
      "Ġliens": 4411,
      "ĠprÃ©senter": 4412,
      "Ġenne": 4413,
      "Ġconcurr": 4414,
      "Ġgraves": 4415,
      "hors": 4416,
      "Ġmilliers": 4417,
      "Ġvaisse": 4418,
      "Ġretrouver": 4419,
      "Ġpratiques": 4420,
      "Ġcav": 4421,
      "ibli": 4422,
      "Ġentendu": 4423,
      "ĠEl": 4424,
      "Ġyou": 4425,
      "ĠÃ©vent": 4426,
      "ham": 4427,
      "Ġfoi": 4428,
      "Ġconven": 4429,
      "ical": 4430,
      "ĠchaÃ®ne": 4431,
      "Ġjardin": 4432,
      "Ġriche": 4433,
      "ĠØ": 4434,
      "Ġappli": 4435,
      "Ã©tiques": 4436,
      "Ġlesquels": 4437,
      "ĠLu": 4438,
      "ĠpossÃ¨de": 4439,
      "Ġpersonnage": 4440,
      "oÃ¹": 4441,
      "Ġconseils": 4442,
      "ĠdÃ©cide": 4443,
      "gÃ©es": 4444,
      "Ġtiers": 4445,
      "line": 4446,
      "Ã©glise": 4447,
      "gues": 4448,
      "ĠvÃ©hicule": 4449,
      "ternet": 4450,
      "Pro": 4451,
      "Alors": 4452,
      "Ã©an": 4453,
      "Ġretourn": 4454,
      "Ġprochaine": 4455,
      "prÃ©s": 4456,
      "Ġbel": 4457,
      "Ġproduis": 4458,
      "ĠsÃ©ri": 4459,
      "ĠDr": 4460,
      "ĠdiabÃ¨te": 4461,
      "ĠconsÃ©quence": 4462,
      "ung": 4463,
      "Ġconvain": 4464,
      "isode": 4465,
      "Ġcomplet": 4466,
      "Ġsugg": 4467,
      "Ġobjets": 4468,
      "Ġsamedi": 4469,
      "ĠaÃ©ri": 4470,
      "Ġaudi": 4471,
      "esti": 4472,
      "aites": 4473,
      "ĠJapon": 4474,
      "erb": 4475,
      "Ġimpossible": 4476,
      "Ġbloc": 4477,
      "ĠextrÃªmement": 4478,
      "auc": 4479,
      "Ġtableau": 4480,
      "Ġaspect": 4481,
      "Ġatti": 4482,
      "enseignement": 4483,
      "ĠbÃ©bÃ©": 4484,
      "Ġtechnologie": 4485,
      "Ġscol": 4486,
      "aign": 4487,
      "Ġvir": 4488,
      "Ġital": 4489,
      "ĠindÃ©pend": 4490,
      "ĠsupÃ©rieure": 4491,
      "Ġrepas": 4492,
      "spagne": 4493,
      "Ġdanger": 4494,
      "ogle": 4495,
      "Ġchiens": 4496,
      "ĠInter": 4497,
      "ignements": 4498,
      "AM": 4499,
      "Ġbran": 4500,
      "Ġindic": 4501,
      "Ġdiscip": 4502,
      "Ġrevenus": 4503,
      "Ġtab": 4504,
      "Ġvais": 4505,
      "Ġenvis": 4506,
      "Ġmuscles": 4507,
      "apitre": 4508,
      "Ġnote": 4509,
      "apparition": 4510,
      "avec": 4511,
      "ĠCet": 4512,
      "jectif": 4513,
      "Ġsuscepti": 4514,
      "AP": 4515,
      "Ġcheval": 4516,
      "Ġstatut": 4517,
      "Ġfaite": 4518,
      "Ġsurveill": 4519,
      "acte": 4520,
      "Ġmontrer": 4521,
      "Ġchoc": 4522,
      "aluation": 4523,
      "mont": 4524,
      "ctionn": 4525,
      "ĠrÃ©sistance": 4526,
      "Ġlic": 4527,
      "Ġordin": 4528,
      "ĠcÃ´tÃ©s": 4529,
      "Ġanciens": 4530,
      "Ġassurer": 4531,
      "Ġresponsables": 4532,
      "Ġfigure": 4533,
      "Ġactuelle": 4534,
      "ives": 4535,
      "Ġfid": 4536,
      "ĠLondres": 4537,
      "Ġdon": 4538,
      "Ġjeux": 4539,
      "ĠsupplÃ©mentaires": 4540,
      "uellement": 4541,
      "onneur": 4542,
      "fice": 4543,
      "Ġservir": 4544,
      "Ġorient": 4545,
      "onav": 4546,
      "ĠrÃ©duction": 4547,
      "Ð°": 4548,
      "ĠemployÃ©s": 4549,
      "lÃ©e": 4550,
      "do": 4551,
      "Ġchasse": 4552,
      "bum": 4553,
      "Ġdouce": 4554,
      "asc": 4555,
      "Ġenvers": 4556,
      "ications": 4557,
      "ĠliÃ©s": 4558,
      "Ġtrouvent": 4559,
      "arb": 4560,
      "ĠÃ©conomiques": 4561,
      "ĠcompÃ©tences": 4562,
      "ĠDepuis": 4563,
      "AD": 4564,
      "achat": 4565,
      "Ġimag": 4566,
      "Ġplantes": 4567,
      "Ġferme": 4568,
      "Ãªter": 4569,
      "ocat": 4570,
      "oureux": 4571,
      "Ġoeu": 4572,
      "Ġconvient": 4573,
      "drome": 4574,
      "Ġhas": 4575,
      "Ġclairement": 4576,
      "euse": 4577,
      "ĠrÃ©aliser": 4578,
      "iennes": 4579,
      "Ġchronique": 4580,
      "Ġstim": 4581,
      "tÃ©b": 4582,
      "emple": 4583,
      "ĠdÃ©claration": 4584,
      "Ã¨tes": 4585,
      "enquÃªte": 4586,
      "ĠintÃ©rÃªts": 4587,
      "Ġphase": 4588,
      "Ġciel": 4589,
      "delÃł": 4590,
      "Ġplaisir": 4591,
      "na": 4592,
      "ĠGuerre": 4593,
      "Ġconstitue": 4594,
      "Ðµ": 4595,
      "ĠRen": 4596,
      "Ã©gÃ©t": 4597,
      "Ġvia": 4598,
      "Ġsport": 4599,
      "Quand": 4600,
      "Ġesti": 4601,
      "ĠGrande": 4602,
      "ÙĲ": 4603,
      "ĠMÃªme": 4604,
      "ĠÃ©tabli": 4605,
      "Ġseraient": 4606,
      "Ġcivile": 4607,
      "ĠcomplÃ¨te": 4608,
      "Ġchercher": 4609,
      "exploit": 4610,
      "As": 4611,
      "Ġdo": 4612,
      "Ã©cution": 4613,
      "telle": 4614,
      "Tout": 4615,
      "rom": 4616,
      "IC": 4617,
      "Ġpublics": 4618,
      "ater": 4619,
      "ĠrÃ©t": 4620,
      "ĠÃ©tape": 4621,
      "Ġsujets": 4622,
      "Ġos": 4623,
      "ĠapparaÃ®t": 4624,
      "Ġallait": 4625,
      "ĠFranÃ§ois": 4626,
      "Ġmauvaise": 4627,
      "uffis": 4628,
      "Ġlaisse": 4629,
      "ĠMor": 4630,
      "Ġpierre": 4631,
      "Ġcontrib": 4632,
      "main": 4633,
      "oudre": 4634,
      "Ġtroupes": 4635,
      "Allemagne": 4636,
      "ĠnommÃ©": 4637,
      "ĠespÃ¨ces": 4638,
      "Ils": 4639,
      "existence": 4640,
      "Ġfaveur": 4641,
      "ĠPendant": 4642,
      "Ġlargement": 4643,
      "ĠPrÃ©s": 4644,
      "Ġsurpr": 4645,
      "ĠprotÃ©ines": 4646,
      "Ġfabri": 4647,
      "ĠopÃ©rations": 4648,
      "lande": 4649,
      "Ġpauvre": 4650,
      "ĠnuclÃ©": 4651,
      "cesse": 4652,
      "Ass": 4653,
      "gyp": 4654,
      "rin": 4655,
      "ĠbÃ¢timent": 4656,
      "Ġdouleurs": 4657,
      "imes": 4658,
      "Ġkilom": 4659,
      "Ġchev": 4660,
      "ĠmatÃ©riel": 4661,
      "tiste": 4662,
      "ĠXV": 4663,
      "ael": 4664,
      "olf": 4665,
      "Ġhauteur": 4666,
      "ĠcinÃ©ma": 4667,
      "ĠdÃ©plac": 4668,
      "Ġprincipales": 4669,
      "Ġimportantes": 4670,
      "Ġquali": 4671,
      "Ã§a": 4672,
      "issait": 4673,
      "OM": 4674,
      "Ġgri": 4675,
      "Ġfournit": 4676,
      "OR": 4677,
      "rac": 4678,
      "ĠSoci": 4679,
      "Ġchauff": 4680,
      "Ġrequ": 4681,
      "Xe": 4682,
      "ĠÃ©lÃ©ment": 4683,
      "Ġfront": 4684,
      "urgence": 4685,
      "Afrique": 4686,
      "ĠrÃ©duit": 4687,
      "quide": 4688,
      "Ġcontemp": 4689,
      "ĠTous": 4690,
      "Ġmine": 4691,
      "Ġcu": 4692,
      "Ġcomporte": 4693,
      "ĠÃ©levÃ©e": 4694,
      "Ġviande": 4695,
      "anges": 4696,
      "ĠvÃ©gÃ©t": 4697,
      "Ġpur": 4698,
      "Ġtub": 4699,
      "III": 4700,
      "Ġcouleurs": 4701,
      "Ġmaisons": 4702,
      "roits": 4703,
      "tisme": 4704,
      "Ġcirculation": 4705,
      "Ġvent": 4706,
      "onavirus": 4707,
      "Ġphotos": 4708,
      "Ã©th": 4709,
      "Ġsommeil": 4710,
      "Ġjournal": 4711,
      "Ġapprendre": 4712,
      "Ġara": 4713,
      "Ġconflit": 4714,
      "raphe": 4715,
      "agnes": 4716,
      "Ġnerve": 4717,
      "Ġefforts": 4718,
      "outes": 4719,
      "assurer": 4720,
      "illez": 4721,
      "Ġpourra": 4722,
      "entement": 4723,
      "Ġfeuilles": 4724,
      "Ġproven": 4725,
      "Ġconten": 4726,
      "Ġverre": 4727,
      "ĠsiÃ¨ge": 4728,
      "ĠrÃ©flex": 4729,
      "Ġcm": 4730,
      "ĠstratÃ©gie": 4731,
      "ardi": 4732,
      "Ġlev": 4733,
      "gin": 4734,
      "rix": 4735,
      "cien": 4736,
      "aude": 4737,
      "Ġit": 4738,
      "Ġfen": 4739,
      "tation": 4740,
      "Ġmagas": 4741,
      "Ġbomb": 4742,
      "Ã³": 4743,
      "Ġsuffisamment": 4744,
      "ura": 4745,
      "Ġscience": 4746,
      "Ġtax": 4747,
      "Ġregarder": 4748,
      "Ġencour": 4749,
      "Ġanalyse": 4750,
      "ĠSec": 4751,
      "Ġoccident": 4752,
      "Ġrecevoir": 4753,
      "net": 4754,
      "cession": 4755,
      "Ġconstruire": 4756,
      "Ġcess": 4757,
      "da": 4758,
      "ĠmodÃ¨les": 4759,
      "ĠprÃ©sentÃ©": 4760,
      "affaire": 4761,
      "Ġfavoris": 4762,
      "ÃŃ": 4763,
      "Ġsection": 4764,
      "Ġvolume": 4765,
      "Ġobjectif": 4766,
      "Uni": 4767,
      "Ġpapier": 4768,
      "illon": 4769,
      "umes": 4770,
      "Ġreligion": 4771,
      "ĠdÃ©crit": 4772,
      "Ġmorce": 4773,
      "oise": 4774,
      "ientÃ´t": 4775,
      "Depuis": 4776,
      "ĠNouv": 4777,
      "entiss": 4778,
      "Ġchaleur": 4779,
      "Ãªtres": 4780,
      "Ġdehors": 4781,
      "ĠprÃ©parer": 4782,
      "Ġsentiment": 4783,
      "accomp": 4784,
      "tilis": 4785,
      "Ġquotidien": 4786,
      "ĠÃ¢ge": 4787,
      "Que": 4788,
      "Ġliquide": 4789,
      "fications": 4790,
      "Ġmig": 4791,
      "Ġvoulait": 4792,
      "ires": 4793,
      "ĠgoÃ»t": 4794,
      "Ġvote": 4795,
      "Ġvieux": 4796,
      "Ġpartage": 4797,
      "Ġauteurs": 4798,
      "Ġveulent": 4799,
      "ĠdifficultÃ©s": 4800,
      "Ġcycle": 4801,
      "Ġentend": 4802,
      "Ġjui": 4803,
      "Ġexcep": 4804,
      "Ab": 4805,
      "oindre": 4806,
      "Ġsouvenir": 4807,
      "ĠdÃ©clen": 4808,
      "fon": 4809,
      "Ġcirconst": 4810,
      "Ġvend": 4811,
      "ĠGen": 4812,
      "Åĵil": 4813,
      "Ġprises": 4814,
      "Ġtir": 4815,
      "Ġcroire": 4816,
      "importance": 4817,
      "ĠSam": 4818,
      "Ġpont": 4819,
      "ĠRobert": 4820,
      "ĠsÃ©v": 4821,
      "verse": 4822,
      "cieux": 4823,
      "dem": 4824,
      "Ġsuit": 4825,
      "hÃ´pital": 4826,
      "agir": 4827,
      "Ġillus": 4828,
      "quie": 4829,
      "AmÃ©rique": 4830,
      "Ġfoot": 4831,
      "ĠMarie": 4832,
      "ĠdÃ©partement": 4833,
      "extÃ©rieur": 4834,
      "ercices": 4835,
      "ĠrÃ©action": 4836,
      "arriv": 4837,
      "Ġroy": 4838,
      "rages": 4839,
      "Ġaltern": 4840,
      "Ġcoups": 4841,
      "Ġprochain": 4842,
      "ĠCertains": 4843,
      "Ġextra": 4844,
      "Ġcompt": 4845,
      "Ġconsulter": 4846,
      "Ġadultes": 4847,
      "Ġeaux": 4848,
      "ĠaccÃ¨s": 4849,
      "ĠjouÃ©": 4850,
      "Ġcrimin": 4851,
      "erc": 4852,
      "Ġem": 4853,
      "Ġvertu": 4854,
      "ĠPhili": 4855,
      "Ġpan": 4856,
      "Ġryth": 4857,
      "ĠBan": 4858,
      "Ġvisant": 4859,
      "ĠAlex": 4860,
      "istan": 4861,
      "Ġterres": 4862,
      "by": 4863,
      "Ġsyndic": 4864,
      "Ġfaud": 4865,
      "oto": 4866,
      "cis": 4867,
      "liquez": 4868,
      "aph": 4869,
      "ĠtÃ©lÃ©phone": 4870,
      "mbler": 4871,
      "Ġpolici": 4872,
      "Ġmusul": 4873,
      "own": 4874,
      "Ġconstruit": 4875,
      "Ġimage": 4876,
      "ĠmÃ©d": 4877,
      "Ġprovin": 4878,
      "apes": 4879,
      "Ad": 4880,
      "Ġsoul": 4881,
      "ĠdÃ©veloppe": 4882,
      "orb": 4883,
      "Ġcitoyens": 4884,
      "Ġchirurg": 4885,
      "ĠdÃ©cisions": 4886,
      "Ġchant": 4887,
      "ĠDeux": 4888,
      "obtenir": 4889,
      "rak": 4890,
      "Ġdiss": 4891,
      "Ã©rir": 4892,
      "ĠRom": 4893,
      "Ġcru": 4894,
      "ĠdÃ©tails": 4895,
      "atite": 4896,
      "Ġparal": 4897,
      "Ġdiz": 4898,
      "ĠOb": 4899,
      "Ġexamen": 4900,
      "Ġordre": 4901,
      "ola": 4902,
      "las": 4903,
      "otion": 4904,
      "tenue": 4905,
      "Ġcomposition": 4906,
      "tionnaire": 4907,
      "Ġpages": 4908,
      "Ġgam": 4909,
      "Ġsys": 4910,
      "ĠsituÃ©e": 4911,
      "irent": 4912,
      "ĠrÃ©glement": 4913,
      "ĠNation": 4914,
      "ĠprÃ©paration": 4915,
      "ison": 4916,
      "Ġlimite": 4917,
      "Ġdommages": 4918,
      "Ġpersonnages": 4919,
      "Ġabsolu": 4920,
      "Ġdossier": 4921,
      "cha": 4922,
      "ĠCo": 4923,
      "ĠcrÃ©dit": 4924,
      "Ġinqui": 4925,
      "fiÃ©s": 4926,
      "ĠcÃ©lÃ©": 4927,
      "culaires": 4928,
      "ĠrÃ©seaux": 4929,
      "Ġdomaines": 4930,
      "ashington": 4931,
      "Ġbouche": 4932,
      "Ġcab": 4933,
      "Ã©dÃ©": 4934,
      "Ġmenace": 4935,
      "Ġchoisi": 4936,
      "Ġprincipes": 4937,
      "Ġcertainement": 4938,
      "AF": 4939,
      "Ð¸": 4940,
      "Ġcos": 4941,
      "itter": 4942,
      "ĠlÃ©gÃ¨rement": 4943,
      "ographique": 4944,
      "Ã©lect": 4945,
      "diction": 4946,
      "dans": 4947,
      "Ġdiver": 4948,
      "Ġvacc": 4949,
      "Ġbonnes": 4950,
      "Ã¨vre": 4951,
      "ĠMa": 4952,
      "Ġdomin": 4953,
      "ĠtraitÃ©": 4954,
      "Ġajouter": 4955,
      "ĠdÃ©bat": 4956,
      "Ġru": 4957,
      "Ġcorp": 4958,
      "Ġpartout": 4959,
      "Ġjambes": 4960,
      "ĠentiÃ¨rement": 4961,
      "Ġfaute": 4962,
      "Ġlocaux": 4963,
      "âĢ¢": 4964,
      "tiss": 4965,
      "pour": 4966,
      "env": 4967,
      "anitÃ©": 4968,
      "mettre": 4969,
      "ycl": 4970,
      "Ġreligie": 4971,
      "Ġtissu": 4972,
      ".Â»": 4973,
      "Ġnul": 4974,
      "Ġmoteur": 4975,
      "Ġbande": 4976,
      "adap": 4977,
      "ws": 4978,
      "ĠMarc": 4979,
      "asi": 4980,
      "Ġattribu": 4981,
      "ections": 4982,
      "ester": 4983,
      "ĠCont": 4984,
      "Ġagents": 4985,
      "Ã©raux": 4986,
      "ĠboÃ®": 4987,
      "ĠrÃ©sid": 4988,
      "ulaires": 4989,
      "uste": 4990,
      "oo": 4991,
      "paravant": 4992,
      "ĠcommuniquÃ©": 4993,
      "ĠPer": 4994,
      "Cela": 4995,
      "ĠeffectuÃ©": 4996,
      "Ġfonctionne": 4997,
      "alimentation": 4998,
      "Quel": 4999,
      "ker": 5000,
      "Ġnoter": 5001,
      "ĠBeau": 5002,
      "jouter": 5003,
      "ĠentraÃ®ner": 5004,
      "onnÃ©e": 5005,
      "ĠMi": 5006,
      "igh": 5007,
      "alisÃ©e": 5008,
      "Ġdoig": 5009,
      "Ġparticipation": 5010,
      "Ãªtements": 5011,
      "Ġtox": 5012,
      "Ġvoies": 5013,
      "ĠchÃ¢teau": 5014,
      "erait": 5015,
      "Ġexclus": 5016,
      "ĠeuropÃ©en": 5017,
      "Ġparlement": 5018,
      "Ġassure": 5019,
      "Ã©rÃ©es": 5020,
      "Ġaffaire": 5021,
      "ĠrecommandÃ©": 5022,
      "Ġappelle": 5023,
      "ĠprÃ©cise": 5024,
      "ĠSan": 5025,
      "dite": 5026,
      "Ġpen": 5027,
      "Ġproches": 5028,
      "ĠscÃ©n": 5029,
      "Ġbil": 5030,
      "ĠutilisÃ©es": 5031,
      "ĠarriÃ¨re": 5032,
      "issez": 5033,
      "ogÃ¨ne": 5034,
      "Ġtravaille": 5035,
      "Ġrecours": 5036,
      "rich": 5037,
      "Ġchute": 5038,
      "go": 5039,
      "arrÃªt": 5040,
      "effic": 5041,
      "ĠmaÃ®tr": 5042,
      "dement": 5043,
      "abb": 5044,
      "ĠÃ©vi": 5045,
      "ĠWe": 5046,
      "Ġaccident": 5047,
      "ĠrÃ©union": 5048,
      "isp": 5049,
      "ĠarrÃªtÃ©": 5050,
      "cte": 5051,
      "utÃ©s": 5052,
      "ĠVi": 5053,
      "Ġsociales": 5054,
      "Ġarriver": 5055,
      "Ġpouvant": 5056,
      "Ġestime": 5057,
      "Ġexactement": 5058,
      "ĠdÃ©finition": 5059,
      "ĠMad": 5060,
      ");": 5061,
      "Ġbaisse": 5062,
      "--------": 5063,
      "Ġprolong": 5064,
      "bon": 5065,
      "aisons": 5066,
      "Ã©re": 5067,
      "ĠmarchÃ©s": 5068,
      "Ġsuffit": 5069,
      "Ġconnex": 5070,
      "ĠmÃ¢": 5071,
      "ĠRÃ©": 5072,
      "Ã©rapeu": 5073,
      "Ġign": 5074,
      "Ġfoie": 5075,
      "Ġnoms": 5076,
      "Ġhu": 5077,
      "ĠGoogle": 5078,
      "Ġparole": 5079,
      "ĠcomposÃ©": 5080,
      "ĠprÃ©vu": 5081,
      "ĠSc": 5082,
      "ĠHar": 5083,
      "Ġspir": 5084,
      "____": 5085,
      "Cependant": 5086,
      "ld": 5087,
      "Ġfall": 5088,
      "Ġcrit": 5089,
      "Ġquitter": 5090,
      "ĠBro": 5091,
      "ensitÃ©": 5092,
      "ĠÃ©coles": 5093,
      "Ġfant": 5094,
      "ĠMac": 5095,
      "Ġrevenir": 5096,
      "Ġprovoquer": 5097,
      "ĠcatÃ©gorie": 5098,
      "Ġdessus": 5099,
      "Ã©lection": 5100,
      "ĠlancÃ©": 5101,
      "Ġnouvel": 5102,
      "ĠÃ®": 5103,
      "Ġart": 5104,
      "heureusement": 5105,
      "ĠlÃ©gisl": 5106,
      "atur": 5107,
      "ĠKh": 5108,
      "Ġhypoth": 5109,
      "ĠconsidÃ©ra": 5110,
      "ĠkilomÃ¨tres": 5111,
      "tienne": 5112,
      "rimÃ©": 5113,
      "Ġro": 5114,
      "ariat": 5115,
      "Ġconnue": 5116,
      "ĠlÃ©gumes": 5117,
      "Ne": 5118,
      "Ġhar": 5119,
      "Ġradio": 5120,
      "ä¸": 5121,
      "ĠprÃ©occup": 5122,
      "olesc": 5123,
      "Ġmandat": 5124,
      "Ġence": 5125,
      "Ġdirigeants": 5126,
      "amin": 5127,
      "Ġcapital": 5128,
      "ĠpropriÃ©tÃ©s": 5129,
      "ĠÃ©criv": 5130,
      "Ġchauss": 5131,
      "...)": 5132,
      "ĠagrÃ©": 5133,
      "ĠreprÃ©sentant": 5134,
      "ĠfÃ©dÃ©ral": 5135,
      "Ġvaut": 5136,
      "ĠSuisse": 5137,
      "tig": 5138,
      "Ġvoire": 5139,
      "nant": 5140,
      "Ġreprises": 5141,
      "ĠappelÃ©e": 5142,
      "rose": 5143,
      "ores": 5144,
      "oyen": 5145,
      "Ġconnaissances": 5146,
      "Ġdisposition": 5147,
      "Ġrelativement": 5148,
      "Ġmille": 5149,
      "universitÃ©": 5150,
      "rÃ©al": 5151,
      "Ġtotalement": 5152,
      "ĠportÃ©e": 5153,
      "Ġsyndrome": 5154,
      "Ġactes": 5155,
      "ms": 5156,
      "Ġcompter": 5157,
      "ĠCong": 5158,
      "Ġpopulaires": 5159,
      "Ġqualif": 5160,
      "install": 5161,
      "Ġdevons": 5162,
      "Ġfera": 5163,
      "hÃ©r": 5164,
      "riers": 5165,
      "Ġacheter": 5166,
      "rient": 5167,
      "ight": 5168,
      "chez": 5169,
      "Ġcommentaires": 5170,
      "ĠdÃ©couvrir": 5171,
      "cter": 5172,
      "ĠDonald": 5173,
      "Ġjet": 5174,
      "ĠGal": 5175,
      "ĠChaque": 5176,
      "ye": 5177,
      "Ġstation": 5178,
      "attaque": 5179,
      "sur": 5180,
      "Ã©rance": 5181,
      "agnol": 5182,
      "ĠAt": 5183,
      "Ġlangues": 5184,
      "Ġclassique": 5185,
      "Ġdevoir": 5186,
      "ĠWh": 5187,
      "Ġfortement": 5188,
      "entissage": 5189,
      "chev": 5190,
      "Ġparticiper": 5191,
      "Ġmam": 5192,
      "ings": 5193,
      "CE": 5194,
      "berg": 5195,
      "Ġcuisine": 5196,
      "lah": 5197,
      "ruption": 5198,
      "onor": 5199,
      "Ġabord": 5200,
      "Ġcommission": 5201,
      "Ġcoronavirus": 5202,
      "Ġprince": 5203,
      "âĢľ": 5204,
      "Ġcontenant": 5205,
      "Ġtient": 5206,
      "ĠCam": 5207,
      "Ġreconnu": 5208,
      "uir": 5209,
      "areil": 5210,
      "OS": 5211,
      "ĠWashington": 5212,
      "ĠcoÃ»ts": 5213,
      "Ġeut": 5214,
      "ĠPremier": 5215,
      "ias": 5216,
      "ĠNic": 5217,
      "ĠPal": 5218,
      "ĠRome": 5219,
      "ĠcomitÃ©": 5220,
      "Ġconcept": 5221,
      "ĠdÃ©couvert": 5222,
      "Ġvivant": 5223,
      "Ġnormal": 5224,
      "ĠrÃªve": 5225,
      "book": 5226,
      "ĠPourquoi": 5227,
      "Ġrav": 5228,
      "Ġretraite": 5229,
      "ĠInternet": 5230,
      "Ġpeinture": 5231,
      "Ġang": 5232,
      "Ġauraient": 5233,
      "Ġball": 5234,
      "Ġdiscu": 5235,
      "Ġcur": 5236,
      "ĠdÃ©faut": 5237,
      "hyd": 5238,
      "ney": 5239,
      "ĠdÃ©penses": 5240,
      "Ġpose": 5241,
      "ĠvertÃ©b": 5242,
      "expression": 5243,
      "Ġdynam": 5244,
      "ige": 5245,
      "Ġcomprennent": 5246,
      "Ġgrec": 5247,
      "dy": 5248,
      "ĠrÃ©serve": 5249,
      "ĠÃ©trangers": 5250,
      "Ġdure": 5251,
      "Ġfati": 5252,
      "ata": 5253,
      "ĠParlement": 5254,
      "Ġajout": 5255,
      "Ġprivil": 5256,
      "Car": 5257,
      "Ã©cuti": 5258,
      "Ġactuel": 5259,
      "VID": 5260,
      "attention": 5261,
      "ĠexpliquÃ©": 5262,
      "ãģ": 5263,
      "ĠcÃ©t": 5264,
      "ĠLi": 5265,
      "ĠSÃ©n": 5266,
      "ĠJu": 5267,
      "Ġcartes": 5268,
      "Ġlongueur": 5269,
      "ĠtuÃ©": 5270,
      "Ġmol": 5271,
      "ĠthÃ©Ã¢tre": 5272,
      "rance": 5273,
      "utation": 5274,
      "Ġbate": 5275,
      "ĠHen": 5276,
      "ark": 5277,
      "can": 5278,
      "Ġfisc": 5279,
      "onses": 5280,
      "Ġaime": 5281,
      "auff": 5282,
      "Ġstand": 5283,
      "ĠCanadi": 5284,
      "ival": 5285,
      "tenus": 5286,
      "Ġinfec": 5287,
      "influ": 5288,
      "ĠnÃ©cessitÃ©": 5289,
      "ĠrÃ©volution": 5290,
      "Ġmarchand": 5291,
      "ulg": 5292,
      "Ġrecons": 5293,
      "Ġrenv": 5294,
      "Ġtirer": 5295,
      "Ġentour": 5296,
      "Ġlocale": 5297,
      "Ġsauf": 5298,
      "Ġsoud": 5299,
      "Ġsituations": 5300,
      "ĠCent": 5301,
      "igueur": 5302,
      "aques": 5303,
      "Ġtomber": 5304,
      "Mal": 5305,
      "Ġsalari": 5306,
      "Ġretard": 5307,
      "Ġfacil": 5308,
      "tionnelles": 5309,
      "ĠbientÃ´t": 5310,
      "Ġvide": 5311,
      "atte": 5312,
      "ĠEd": 5313,
      "Ġsel": 5314,
      "urgie": 5315,
      "Ġdisting": 5316,
      "Ġpossibles": 5317,
      "resser": 5318,
      "Ġcorrectement": 5319,
      "Ùı": 5320,
      "sieur": 5321,
      "vin": 5322,
      "Ġbons": 5323,
      "lÃ¨ve": 5324,
      "Ġbudget": 5325,
      "aits": 5326,
      "Ġinspir": 5327,
      "red": 5328,
      "acitÃ©s": 5329,
      "Ġquatri": 5330,
      "ĠComitÃ©": 5331,
      "gypte": 5332,
      "Ġmass": 5333,
      "Ġportant": 5334,
      "Ġdispose": 5335,
      "ĠsupplÃ©mentaire": 5336,
      "ĠmÃ©decine": 5337,
      "intÃ©gr": 5338,
      "Ġcardiaque": 5339,
      "Ġutilisation": 5340,
      "Ġtissus": 5341,
      "Ġrenouv": 5342,
      "Ġdispositions": 5343,
      "ĠrÃ©vÃ©l": 5344,
      "Ġmanifestations": 5345,
      "ĠphÃ©nomÃ¨ne": 5346,
      "Th": 5347,
      "aime": 5348,
      "ondes": 5349,
      "ami": 5350,
      "Ġsch": 5351,
      "Ġnavig": 5352,
      "exploitation": 5353,
      "Ġapproche": 5354,
      "Ġneuf": 5355,
      "arrivÃ©e": 5356,
      "Ġtellement": 5357,
      "App": 5358,
      "ĠclÃ©": 5359,
      "objectif": 5360,
      "ĠtÃ©moign": 5361,
      "ĠrÃ©el": 5362,
      "Ġprofit": 5363,
      "Ġpharm": 5364,
      "heur": 5365,
      "Ġislam": 5366,
      "ĠparticuliÃ¨re": 5367,
      "endemain": 5368,
      "Ġpel": 5369,
      "Ġheureux": 5370,
      "Ġpoursuit": 5371,
      "fiant": 5372,
      "illiam": 5373,
      "ĠNotre": 5374,
      "dent": 5375,
      "ĠquatriÃ¨me": 5376,
      "ĠÃ©quipes": 5377,
      "ows": 5378,
      "mir": 5379,
      "agÃ©e": 5380,
      "semble": 5381,
      "Ġrappro": 5382,
      "venu": 5383,
      "Ġassi": 5384,
      "forme": 5385,
      "Ġsoutenir": 5386,
      "chÃ©es": 5387,
      "ĠRou": 5388,
      "Ġmorte": 5389,
      "Angleterre": 5390,
      "ca": 5391,
      "ĠCel": 5392,
      "ĠpÃ¢": 5393,
      "ĠÃ©lectrique": 5394,
      "Ġthis": 5395,
      "ĠsiÃ¨cles": 5396,
      "Ġagric": 5397,
      "Ġachet": 5398,
      "Ġplant": 5399,
      "ica": 5400,
      "Ġmou": 5401,
      "cite": 5402,
      "dir": 5403,
      "Ġher": 5404,
      "mination": 5405,
      "Ġtur": 5406,
      "ĠremportÃ©": 5407,
      "Ġintellig": 5408,
      "ĠfinanciÃ¨re": 5409,
      "inion": 5410,
      "rag": 5411,
      "Ġimmun": 5412,
      "ÑĤ": 5413,
      "ĠdegrÃ©": 5414,
      "Ġautomatique": 5415,
      "Ġdevenue": 5416,
      "ĠcitÃ©": 5417,
      "Ġproxim": 5418,
      "Ġorganisation": 5419,
      "assurance": 5420,
      "Ġfichier": 5421,
      "Ġtotale": 5422,
      "cessite": 5423,
      "],": 5424,
      "accep": 5425,
      "Ġdomicile": 5426,
      "autom": 5427,
      "ÙĴ": 5428,
      "ĠÃ©lector": 5429,
      "Ġsommet": 5430,
      "fer": 5431,
      "oser": 5432,
      "Ġlogique": 5433,
      "Ġamp": 5434,
      "Ġinterne": 5435,
      "urine": 5436,
      "ussion": 5437,
      "rict": 5438,
      "Ġlendemain": 5439,
      "Ġprovoque": 5440,
      "ory": 5441,
      "Ġspor": 5442,
      "ĠarrivÃ©": 5443,
      "Ġvac": 5444,
      "Ġesc": 5445,
      "Ġconfront": 5446,
      "Ġnaturelle": 5447,
      "Ġlogici": 5448,
      "ĠNon": 5449,
      "Ġpuisqu": 5450,
      "Ġsecondes": 5451,
      "Ġprofessionnel": 5452,
      "TE": 5453,
      "ÙĨ": 5454,
      "ĠarrÃªt": 5455,
      "Ġtextes": 5456,
      "ĠCal": 5457,
      "Ġallemand": 5458,
      "Ġassis": 5459,
      "Ġsimples": 5460,
      "Ġgout": 5461,
      "Ġposer": 5462,
      "Ġutilisateurs": 5463,
      "Ġacte": 5464,
      "ĠÃ©vo": 5465,
      "Ġvoulu": 5466,
      "At": 5467,
      "ï¼": 5468,
      "iteurs": 5469,
      "ĠEnsuite": 5470,
      "Ġcommis": 5471,
      "Ġexter": 5472,
      "Ġrevanche": 5473,
      "bl": 5474,
      "Ġral": 5475,
      "attend": 5476,
      "Ġcollection": 5477,
      "ĠintÃ©g": 5478,
      "Ġfar": 5479,
      "landais": 5480,
      "ĠWik": 5481,
      "ĠenvoyÃ©": 5482,
      "ĠcrÃ©e": 5483,
      "Ġcouche": 5484,
      "ser": 5485,
      "Ġnormes": 5486,
      "Ġcentaines": 5487,
      "Ġlabor": 5488,
      "Ġhor": 5489,
      "ĠplanÃ¨te": 5490,
      "Ġtuer": 5491,
      "Ġfins": 5492,
      "Ġboire": 5493,
      "Ġsciences": 5494,
      "Ġdoul": 5495,
      "Ġsecondaires": 5496,
      "Ġlance": 5497,
      "Ġflux": 5498,
      "ĠentraÃ®ne": 5499,
      "NE": 5500,
      "Ġfutur": 5501,
      "Ĥ¬": 5502,
      "Ġhe": 5503,
      "ancÃ©e": 5504,
      "Ġformer": 5505,
      "Ġguer": 5506,
      "ĠintÃ©rÃªt": 5507,
      "umer": 5508,
      "Ġconduite": 5509,
      "ĠMontrÃ©al": 5510,
      "ouÃ©": 5511,
      "ĠChris": 5512,
      "tiÃ¨res": 5513,
      "user": 5514,
      "ault": 5515,
      "Ġmob": 5516,
      "ĠliÃ©es": 5517,
      "Ġstatis": 5518,
      "Ġlangage": 5519,
      "ocation": 5520,
      "Ġsupport": 5521,
      "Ġnormale": 5522,
      "Ġafric": 5523,
      "aintenant": 5524,
      "ĠnÃ©cessite": 5525,
      "ĠcomprÃ©h": 5526,
      "Ġouverte": 5527,
      "Ġhttp": 5528,
      "Ġcirconstances": 5529,
      "ĠdÃ©couverte": 5530,
      "ĠlaissÃ©": 5531,
      "illÃ©": 5532,
      "ĠSeigneur": 5533,
      "ji": 5534,
      "Ġrecueil": 5535,
      "investis": 5536,
      "ĠLoi": 5537,
      "ulations": 5538,
      "gner": 5539,
      "ĠfrÃ¨res": 5540,
      "Ġplante": 5541,
      "Ġspiritu": 5542,
      "ino": 5543,
      "semblÃ©e": 5544,
      "ĠAs": 5545,
      "oriz": 5546,
      "ĠFace": 5547,
      "Ġcompli": 5548,
      "Ġperspec": 5549,
      "ĠdiffÃ©rent": 5550,
      "Ġattaque": 5551,
      "issements": 5552,
      "dien": 5553,
      "Ġpubliques": 5554,
      "Ġcontempor": 5555,
      "atre": 5556,
      "ĠspÃ©cifiques": 5557,
      "Ã©tudes": 5558,
      "ĠÃ©mis": 5559,
      "ĠprogrÃ¨s": 5560,
      "ĠspÃ©cial": 5561,
      "ertaines": 5562,
      "Ġhyd": 5563,
      "ĠÅĵuvres": 5564,
      "Ġconvers": 5565,
      "ĠprÃ©venir": 5566,
      "Ġlocal": 5567,
      "Ġdemeure": 5568,
      "Ġclinique": 5569,
      "ĠreprÃ©sentants": 5570,
      "Ġprofessionnels": 5571,
      "ussit": 5572,
      "Ġpert": 5573,
      "ĠGl": 5574,
      "IE": 5575,
      "iteur": 5576,
      "Ġrevient": 5577,
      "Ġseuls": 5578,
      "Ġtitres": 5579,
      "**": 5580,
      "ĠVer": 5581,
      "ĠcapacitÃ©s": 5582,
      "ĠRich": 5583,
      "Ġpublication": 5584,
      "ĠdÃ©lai": 5585,
      "Ġplans": 5586,
      "omac": 5587,
      "infection": 5588,
      "Ġlimites": 5589,
      "ĠMme": 5590,
      "aintes": 5591,
      "tellectu": 5592,
      "Ġpanc": 5593,
      "avons": 5594,
      "Ġcorre": 5595,
      "Ġjuridique": 5596,
      "Ġcandidat": 5597,
      "Ġglucides": 5598,
      "Ġfleurs": 5599,
      "Ġamen": 5600,
      "ĠaiguÃ«": 5601,
      "crire": 5602,
      "ĠchangÃ©": 5603,
      "Ġapplication": 5604,
      "Ġindividus": 5605,
      "Ġinstitutions": 5606,
      "mation": 5607,
      "no": 5608,
      "orique": 5609,
      "rot": 5610,
      "ivre": 5611,
      "Ġmachine": 5612,
      "Ġjugement": 5613,
      "Ġsoin": 5614,
      "Ġoui": 5615,
      "Ġessayer": 5616,
      "Ã©ricains": 5617,
      "tionnels": 5618,
      "Ġorganisations": 5619,
      "ĠQui": 5620,
      "ĠproximitÃ©": 5621,
      "Ġpilote": 5622,
      "Ġvoitures": 5623,
      "ĠvÃªtements": 5624,
      "tian": 5625,
      "rab": 5626,
      "Ġsouver": 5627,
      "Ġvar": 5628,
      "ĠprÃ©sidenti": 5629,
      "Ġinclu": 5630,
      "Emp": 5631,
      "ĠlÃ©s": 5632,
      "ĠrÃ©flÃ©": 5633,
      "Ġtombe": 5634,
      "kin": 5635,
      "Ġjur": 5636,
      "Ġaffirme": 5637,
      "tival": 5638,
      "Ġpropor": 5639,
      "aisses": 5640,
      "Ġremont": 5641,
      "Ġsimilaires": 5642,
      "Ġvaisseaux": 5643,
      "Ġsurveillance": 5644,
      "Ġfib": 5645,
      "Ġavions": 5646,
      "Ġconsult": 5647,
      "ondu": 5648,
      "Ġdessin": 5649,
      "Ġsubstances": 5650,
      "Ġacqu": 5651,
      "Ġvice": 5652,
      "Ġrent": 5653,
      "eld": 5654,
      "ĠBern": 5655,
      "ĠcÃ©rÃ©b": 5656,
      "Ġsouhaitez": 5657,
      "informations": 5658,
      "hib": 5659,
      "Ġforc": 5660,
      "Ġesprit": 5661,
      "Ġparfaitement": 5662,
      "Ġair": 5663,
      "Ġcommen": 5664,
      "ĠvÃ©rifier": 5665,
      "ĠconÃ§": 5666,
      "ĠprivÃ©": 5667,
      "Ġremb": 5668,
      "Ġpaiement": 5669,
      "affaires": 5670,
      "opposition": 5671,
      "Ġvenu": 5672,
      "ĠhÃ©r": 5673,
      "Ġauxqu": 5674,
      "ĠrÃ©comp": 5675,
      "ĠCentre": 5676,
      "Ġgras": 5677,
      "Ġfinancement": 5678,
      "Ġbibli": 5679,
      "ĠAfrique": 5680,
      "Ġconcentration": 5681,
      "RÃ©": 5682,
      "uil": 5683,
      "Ġintellectu": 5684,
      "Ã´ne": 5685,
      "Ã©sie": 5686,
      "Ġcentral": 5687,
      "Ġmagn": 5688,
      "augmentation": 5689,
      "ĠgÃ©nÃ©ration": 5690,
      "ĠNouvelle": 5691,
      "Ġsaint": 5692,
      "ĠBre": 5693,
      "Ġexperts": 5694,
      "Avant": 5695,
      "ĠmÃ©tal": 5696,
      "Ġattendre": 5697,
      "Ġmassi": 5698,
      "ricitÃ©": 5699,
      "za": 5700,
      "Ġracont": 5701,
      "ument": 5702,
      "rime": 5703,
      "oient": 5704,
      "Ġeuros": 5705,
      "ĠCas": 5706,
      "Ġblanche": 5707,
      "ãĢ": 5708,
      "ish": 5709,
      "oeu": 5710,
      "ĠGre": 5711,
      "Ġdisent": 5712,
      "ĠTor": 5713,
      "Ġentrer": 5714,
      "Ã©rop": 5715,
      "ĠMartin": 5716,
      "actu": 5717,
      "Ġbrut": 5718,
      "ound": 5719,
      "ducteur": 5720,
      "Ġenregistre": 5721,
      "Ġtension": 5722,
      "Ġcombien": 5723,
      "aus": 5724,
      "ĠfÃªte": 5725,
      "Ġappris": 5726,
      "Ġpathologie": 5727,
      "ereur": 5728,
      "alogue": 5729,
      "omas": 5730,
      "ibilitÃ©": 5731,
      "Ġjudiciaire": 5732,
      "ĠÃ©tapes": 5733,
      "ĠÃ©tablis": 5734,
      "ĠToutefois": 5735,
      "Ġgram": 5736,
      "Cont": 5737,
      "ae": 5738,
      "ĠcÃ´te": 5739,
      "Ã©tablissement": 5740,
      "Ġpul": 5741,
      "Ġreli": 5742,
      "Ġvoud": 5743,
      "Ġsing": 5744,
      "Ġpassant": 5745,
      "TION": 5746,
      "Ġvende": 5747,
      "Ġcuill": 5748,
      "extr": 5749,
      "Ã©rieurs": 5750,
      "Ã©ter": 5751,
      "ĠrÃ©ponses": 5752,
      "domin": 5753,
      "anda": 5754,
      "Ġmath": 5755,
      "view": 5756,
      "SS": 5757,
      "Ġfre": 5758,
      "Ġceci": 5759,
      "nel": 5760,
      "ĠFer": 5761,
      "Ġcoupe": 5762,
      "ĠfrontiÃ¨re": 5763,
      "Ġexercices": 5764,
      "Ġchapitre": 5765,
      "Ġsynth": 5766,
      "ayer": 5767,
      "ĠmÃ©tab": 5768,
      "ĠSyrie": 5769,
      "annÃ©es": 5770,
      "reur": 5771,
      "Ġcoord": 5772,
      "Ġsecret": 5773,
      "Ġchaud": 5774,
      "ĠrÃ©soudre": 5775,
      "efficacitÃ©": 5776,
      "Ġproph": 5777,
      "Ġmm": 5778,
      "ĠTour": 5779,
      "ĠrÃ©vÃ©lÃ©": 5780,
      "ĠAllemagne": 5781,
      "port": 5782,
      "arme": 5783,
      "Ġrenseignements": 5784,
      "rase": 5785,
      "Ġfacteur": 5786,
      "ĠÃ©levÃ©s": 5787,
      "othÃ©rapie": 5788,
      "ĠliÃ©": 5789,
      "ĠlÃ©giti": 5790,
      "Ġrythme": 5791,
      "ool": 5792,
      "ĠirrÃ©": 5793,
      "ĠNations": 5794,
      "ĠrÃ©public": 5795,
      "Ġcritiques": 5796,
      "ĠreÃ§oit": 5797,
      "Ġattra": 5798,
      "ĠKe": 5799,
      "inflammation": 5800,
      "ĠdiffÃ©rente": 5801,
      "influence": 5802,
      "ernes": 5803,
      "keting": 5804,
      "Ġrappelle": 5805,
      "Ġhan": 5806,
      "Ġchampionn": 5807,
      "avaient": 5808,
      "ĠgarÃ§on": 5809,
      "Ġespace": 5810,
      "Ã©dÃ©ration": 5811,
      "Ð½": 5812,
      "Ã©dition": 5813,
      "Ġconduire": 5814,
      "ĠrÃ¨glement": 5815,
      "ĠmatiÃ¨res": 5816,
      "estival": 5817,
      "Ġmontrent": 5818,
      "IR": 5819,
      "aies": 5820,
      "ĠconfÃ©rence": 5821,
      "Ġcoeur": 5822,
      "isÃ©e": 5823,
      "Ġjapon": 5824,
      "Ġconclu": 5825,
      "ĠdÃ©ch": 5826,
      "Ġadvers": 5827,
      "retagne": 5828,
      "Ġurb": 5829,
      "Ġpure": 5830,
      "Ġacquis": 5831,
      "ĠconnaÃ®t": 5832,
      "Ġnoire": 5833,
      "nie": 5834,
      "avis": 5835,
      "ĠsystÃ©": 5836,
      "Ġutilisent": 5837,
      "ureur": 5838,
      "ventions": 5839,
      "ĠcolÃ¨re": 5840,
      "olie": 5841,
      "ĠvariÃ©tÃ©": 5842,
      "Ã¨che": 5843,
      "ĠdÃ©mocratie": 5844,
      "ouvertes": 5845,
      "Ġjustif": 5846,
      "Ġsexuelle": 5847,
      "Ġerreur": 5848,
      "ty": 5849,
      "obile": 5850,
      "ĠSeu": 5851,
      "autoritÃ©": 5852,
      "Ġfootball": 5853,
      "lige": 5854,
      "alisÃ©s": 5855,
      "Ġparticipants": 5856,
      "tite": 5857,
      "ĠTurquie": 5858,
      "Ġrecouv": 5859,
      "Ġwas": 5860,
      "ave": 5861,
      "ĠgÃ©rer": 5862,
      "Ġsoumis": 5863,
      "Ġinterdit": 5864,
      "Ġperformance": 5865,
      "ium": 5866,
      "avance": 5867,
      "Ġdevriez": 5868,
      "Ã¶": 5869,
      "aider": 5870,
      "armes": 5871,
      "Ġviennent": 5872,
      "ĠEnfin": 5873,
      "ĠIII": 5874,
      "Ġsentir": 5875,
      "Ġrace": 5876,
      "ectu": 5877,
      "ĠdifficultÃ©": 5878,
      "Ġgran": 5879,
      "Ġsolutions": 5880,
      "ĠprÃªts": 5881,
      "Ġpreuves": 5882,
      "Ġmaximum": 5883,
      "ification": 5884,
      "Ġeffectuer": 5885,
      "ĠMoyen": 5886,
      "ĠexÃ©cu": 5887,
      "ĠPrÃ©sident": 5888,
      "Ġdescend": 5889,
      "Ġfroid": 5890,
      "ĠpÃªche": 5891,
      "ĠSans": 5892,
      "ĠvertÃ©brale": 5893,
      "ĠEur": 5894,
      "employ": 5895,
      "ĠrÃ©pand": 5896,
      "Ġressenti": 5897,
      "ĠWilliam": 5898,
      "Ġauparavant": 5899,
      "Ġchefs": 5900,
      "unis": 5901,
      "OT": 5902,
      "alise": 5903,
      "Cet": 5904,
      "ession": 5905,
      "ĠcondamnÃ©": 5906,
      "ial": 5907,
      "ĠpropriÃ©taires": 5908,
      "Ġtente": 5909,
      "Pourquoi": 5910,
      "Ġmeurt": 5911,
      "Ġdiminution": 5912,
      "hor": 5913,
      "ĠcÃ©lÃ©b": 5914,
      "Ã©tation": 5915,
      "Ġatten": 5916,
      "Con": 5917,
      "Ġrares": 5918,
      "grÃ©di": 5919,
      "Ã©valuation": 5920,
      "tration": 5921,
      "ĠFond": 5922,
      "oue": 5923,
      "ĠAvant": 5924,
      "Ġdivision": 5925,
      "anes": 5926,
      "acteur": 5927,
      "Ġtradition": 5928,
      "Ã©tranger": 5929,
      "inet": 5930,
      "ĠmusÃ©e": 5931,
      "stitut": 5932,
      "veille": 5933,
      "Ġtempor": 5934,
      "Ġfranc": 5935,
      "Ġsert": 5936,
      "tur": 5937,
      "Ġreligieux": 5938,
      "mun": 5939,
      "Ġexcessi": 5940,
      "ĠRÃ©s": 5941,
      "ĠdonnÃ©e": 5942,
      "ĠLy": 5943,
      "moi": 5944,
      "ita": 5945,
      "Ġpeuples": 5946,
      "DE": 5947,
      "Ġsupr": 5948,
      "athie": 5949,
      "ĠÃ©cou": 5950,
      "Ġusage": 5951,
      "orce": 5952,
      "ĠChamp": 5953,
      "conque": 5954,
      "Ġchanson": 5955,
      "aye": 5956,
      "Ġpoursuivre": 5957,
      "Ġrenforcer": 5958,
      "istant": 5959,
      "Ġattaques": 5960,
      "Ġmobil": 5961,
      "oyez": 5962,
      "Ġancienne": 5963,
      "Iran": 5964,
      "Ã©quilibre": 5965,
      "Ġmagni": 5966,
      "Ġpotentiel": 5967,
      "ĠCeci": 5968,
      "audi": 5969,
      "ĠchargÃ©": 5970,
      "Ã´ts": 5971,
      "Ġdisposi": 5972,
      "Ġsimilaire": 5973,
      "Ġdangereux": 5974,
      "culp": 5975,
      "ositÃ©": 5976,
      "Ġplat": 5977,
      "ĠprivÃ©e": 5978,
      "omes": 5979,
      "ĠHam": 5980,
      "ĠcomplÃ©": 5981,
      "Ġregarde": 5982,
      "Ġexigences": 5983,
      "Ã©ph": 5984,
      "usage": 5985,
      "Ġbrill": 5986,
      "Ùħ": 5987,
      "Ġpartenaire": 5988,
      "romp": 5989,
      "teau": 5990,
      "Ġauquel": 5991,
      "exposition": 5992,
      "Ġcommentaire": 5993,
      ".-": 5994,
      "tissement": 5995,
      "Ġpropag": 5996,
      "opie": 5997,
      "impression": 5998,
      "Ġparam": 5999,
      "venue": 6000,
      "ĠVic": 6001,
      "Ġparoles": 6002,
      "ject": 6003,
      "Ġexpliquer": 6004,
      "Ġexploit": 6005,
      "Ġprennent": 6006,
      "Ġgo": 6007,
      "Ġpand": 6008,
      "oseph": 6009,
      "mÃ©s": 6010,
      "ouer": 6011,
      "Ġmascul": 6012,
      "Ġoutils": 6013,
      "âĢĿ,": 6014,
      "Ġcandidats": 6015,
      "Ġpouvoirs": 6016,
      "organisme": 6017,
      "Ġcens": 6018,
      "ĠCr": 6019,
      "CH": 6020,
      "Ġanimal": 6021,
      "bourg": 6022,
      "Ġgratuit": 6023,
      "bio": 6024,
      "ĠsignÃ©": 6025,
      "Ġchiffres": 6026,
      "Ġroyaume": 6027,
      "ĠliÃ©e": 6028,
      "apprentissage": 6029,
      "ĠPrix": 6030,
      "Pendant": 6031,
      "eue": 6032,
      "Ġrespecter": 6033,
      "ĠcommunautÃ©s": 6034,
      "matiques": 6035,
      "ision": 6036,
      "Ġpros": 6037,
      "Ġbus": 6038,
      "arriÃ¨re": 6039,
      "Ġdiam": 6040,
      "Ġsemblent": 6041,
      "Ġtume": 6042,
      "levÃ©": 6043,
      "Ġclassement": 6044,
      "ĠdÃ©veloppÃ©": 6045,
      "ĠthÃ©rapeu": 6046,
      "Ġreconnaissance": 6047,
      "ĠâĨ": 6048,
      "lais": 6049,
      "crits": 6050,
      "examen": 6051,
      "Ġarti": 6052,
      "ĠAg": 6053,
      "ĠrÃ©n": 6054,
      "Ñģ": 6055,
      "Ġsit": 6056,
      "aid": 6057,
      "Ġfinal": 6058,
      "Ġdiplom": 6059,
      "Ġcourte": 6060,
      "Ġvaste": 6061,
      "ÑĢ": 6062,
      "ataire": 6063,
      "Ġmener": 6064,
      "Ġbanque": 6065,
      "ĠtÃ¢che": 6066,
      "Ġbanc": 6067,
      "Ġfur": 6068,
      "ĠRo": 6069,
      "any": 6070,
      "Ġendroits": 6071,
      "ĠplacÃ©": 6072,
      "Ġdiges": 6073,
      "quait": 6074,
      "Ġdevra": 6075,
      "Ã©chelle": 6076,
      "humanitÃ©": 6077,
      "Ġrestent": 6078,
      "rÃ©sil": 6079,
      "ĠMari": 6080,
      "Ġdeviennent": 6081,
      "Ġbleu": 6082,
      "ĠKar": 6083,
      "gies": 6084,
      "Ġinconn": 6085,
      "ĠfrÃ©quence": 6086,
      "ĠpÃ©r": 6087,
      "Ġeau": 6088,
      "Ġlancer": 6089,
      "ĠÃ©trangÃ¨res": 6090,
      "ĠprÃ©cÃ©dent": 6091,
      "ĠMichel": 6092,
      "Ġfabrication": 6093,
      "Orient": 6094,
      "tures": 6095,
      "ĠTw": 6096,
      "ĠriviÃ¨re": 6097,
      "ompe": 6098,
      "Ġpren": 6099,
      "Ġdiscussion": 6100,
      "ĠguÃ©r": 6101,
      "uline": 6102,
      "Ġbul": 6103,
      "Ġfinancier": 6104,
      "Ġfaux": 6105,
      "raÃ©li": 6106,
      "Ġcontinent": 6107,
      "Ġestim": 6108,
      "Ãīglise": 6109,
      "Ouest": 6110,
      "duite": 6111,
      "Ġmeilleures": 6112,
      "aluer": 6113,
      "entiel": 6114,
      "Ġcircu": 6115,
      "iche": 6116,
      "Ġopport": 6117,
      "Ġvise": 6118,
      "Ġexer": 6119,
      "ĠmathÃ©m": 6120,
      "crip": 6121,
      "Ġpoign": 6122,
      "ĠexpÃ©riment": 6123,
      "Ġprogressivement": 6124,
      "Ġabsolument": 6125,
      "ints": 6126,
      "ĠbÃ©n": 6127,
      "Ġinflamm": 6128,
      "Ġraconte": 6129,
      "ĠBal": 6130,
      "Ġrevue": 6131,
      "ĠEs": 6132,
      "Ġarb": 6133,
      "Ġentendre": 6134,
      "ĠassociÃ©": 6135,
      "rimÃ©s": 6136,
      "ressionn": 6137,
      "ĠÃ©chapp": 6138,
      "Ġmodifications": 6139,
      "Ġblessures": 6140,
      "ĠprÃ©vention": 6141,
      "Ġproposition": 6142,
      "ĠaffirmÃ©": 6143,
      "duits": 6144,
      "autant": 6145,
      "ĠrÃ©alisation": 6146,
      "moine": 6147,
      "ĠprÃ©cisÃ©ment": 6148,
      "Ġbron": 6149,
      "ĠconsidÃ©rÃ©e": 6150,
      "Ġax": 6151,
      "Ġinformation": 6152,
      "ĠconsidÃ©rablement": 6153,
      "lut": 6154,
      "yst": 6155,
      "ĠâĢĺ": 6156,
      "Ġrejoindre": 6157,
      "Ġphilosophie": 6158,
      "ettez": 6159,
      "IA": 6160,
      "ĠTer": 6161,
      "entraÃ®nement": 6162,
      "ressions": 6163,
      "Ġinstant": 6164,
      "olas": 6165,
      "ĠrÃ©alisÃ©e": 6166,
      "tements": 6167,
      "Es": 6168,
      "lite": 6169,
      "Ġargu": 6170,
      "honneur": 6171,
      "registre": 6172,
      "har": 6173,
      "Ġpopulations": 6174,
      "ĠpancrÃ©": 6175,
      "mide": 6176,
      "Ġterror": 6177,
      "ĠcoÃ»te": 6178,
      "initi": 6179,
      "ĠprocÃ©dures": 6180,
      "clav": 6181,
      "ĠVoici": 6182,
      "Ġportes": 6183,
      "Italie": 6184,
      "ĠBon": 6185,
      "fices": 6186,
      "Ġessentiellement": 6187,
      "aqu": 6188,
      "Ã©viter": 6189,
      "ĠportÃ©": 6190,
      "ĠcompÃ©tition": 6191,
      "ĠmÃ©ri": 6192,
      "onyme": 6193,
      "midi": 6194,
      "ĠrÃ©col": 6195,
      "ĠsÃ©nateur": 6196,
      "peau": 6197,
      "Ġnotion": 6198,
      "Ġsauver": 6199,
      "ĠCoupe": 6200,
      "orisation": 6201,
      "rastru": 6202,
      "ĠrÃ©ellement": 6203,
      "Ã©cl": 6204,
      "Ġfini": 6205,
      "ĠChambre": 6206,
      "Ġannonce": 6207,
      "ĠNi": 6208,
      "enser": 6209,
      "mil": 6210,
      "arri": 6211,
      "Ġtol": 6212,
      "neu": 6213,
      "trer": 6214,
      "Ġactif": 6215,
      "ĠrÃ©cit": 6216,
      "Ġjaune": 6217,
      "Ġmotiv": 6218,
      "Ġfournisse": 6219,
      "ĠCOVID": 6220,
      "ĠbÃ¢timents": 6221,
      "Ġchol": 6222,
      "ĠAir": 6223,
      "ĠDel": 6224,
      "Ġinves": 6225,
      "ĠnumÃ©rique": 6226,
      "ĠLA": 6227,
      "ĠCap": 6228,
      "estÃ©r": 6229,
      "ĠMil": 6230,
      "the": 6231,
      "ĠprÃ©t": 6232,
      "agers": 6233,
      "ĠPays": 6234,
      "don": 6235,
      "Ġdeg": 6236,
      "ĠrÃ©solution": 6237,
      "ĠGeorge": 6238,
      "Ġpoisson": 6239,
      "Mon": 6240,
      "oile": 6241,
      "Ag": 6242,
      "ĠsÃ©qu": 6243,
      "Ġalimentaires": 6244,
      "onnÃ©es": 6245,
      "Ġallez": 6246,
      "Ġmodification": 6247,
      "ĠÃ©liminer": 6248,
      "ĠapprÃ©ci": 6249,
      "artic": 6250,
      "option": 6251,
      "ĠconsidÃ¨re": 6252,
      "Ġnettoy": 6253,
      "Ġvigueur": 6254,
      "oliques": 6255,
      "Ġvivent": 6256,
      "Ġpouvaient": 6257,
      "ĠcomplÃ©ment": 6258,
      "ider": 6259,
      "ctes": 6260,
      "arth": 6261,
      "va": 6262,
      "Ġapparaissent": 6263,
      "Ġadj": 6264,
      "antill": 6265,
      "Tr": 6266,
      "ĠlittÃ©rature": 6267,
      "ĠAf": 6268,
      "Ġpain": 6269,
      "ĠLeur": 6270,
      "ĠpÃ©d": 6271,
      "Ġquasi": 6272,
      "Ġflam": 6273,
      "Ġfol": 6274,
      "Ġmenac": 6275,
      "ĠterminÃ©": 6276,
      "ĠparlÃ©": 6277,
      "ĠJack": 6278,
      "ĠunitÃ©s": 6279,
      "ĠexpÃ©riences": 6280,
      "exÃ©cution": 6281,
      "matis": 6282,
      "Ġcertif": 6283,
      "ramme": 6284,
      "ĠBelgique": 6285,
      "Ġpoliciers": 6286,
      "truite": 6287,
      "Ġutilisez": 6288,
      "Ġ)": 6289,
      "rets": 6290,
      "chec": 6291,
      "Ġapport": 6292,
      "arque": 6293,
      "ĠDonc": 6294,
      "Ġrecord": 6295,
      "Ġblo": 6296,
      "ĠrÃ©tab": 6297,
      "ĠcontrÃ´ler": 6298,
      "liers": 6299,
      "ĠdÃ©cl": 6300,
      "Ġpertin": 6301,
      "mosph": 6302,
      "ĠpÃ©nÃ©": 6303,
      "Ġprintemps": 6304,
      "Ġcommunes": 6305,
      "ĠspÃ©cialiste": 6306,
      "ternel": 6307,
      "ĠpÃ©trole": 6308,
      "ĠcomprÃ©hension": 6309,
      "Son": 6310,
      "ophe": 6311,
      "Ġperp": 6312,
      "rat": 6313,
      "ese": 6314,
      "ĠJuli": 6315,
      "lait": 6316,
      "national": 6317,
      "univers": 6318,
      "ĠMer": 6319,
      "ĠMichael": 6320,
      "ĠconÃ§u": 6321,
      "ouvÃ©": 6322,
      "Ġmises": 6323,
      "testin": 6324,
      "ĠBrÃ©sil": 6325,
      "Voici": 6326,
      "dits": 6327,
      "nez": 6328,
      "ĠforÃªt": 6329,
      "aliers": 6330,
      "Ġchampion": 6331,
      "ĠpandÃ©mie": 6332,
      "ĠlibÃ©ration": 6333,
      "riculture": 6334,
      "Ġdents": 6335,
      "Ġparent": 6336,
      "ĠCode": 6337,
      "ĠGi": 6338,
      "Ġreprendre": 6339,
      "Ġcorpore": 6340,
      "Ġstructures": 6341,
      "estations": 6342,
      "ĠSm": 6343,
      "Ġsovi": 6344,
      "Source": 6345,
      "ench": 6346,
      "ĠAujourd": 6347,
      "Ġtraitements": 6348,
      "Ġfallait": 6349,
      "oniques": 6350,
      "ussions": 6351,
      "Ġretrait": 6352,
      "Ġvitamine": 6353,
      "BC": 6354,
      "enz": 6355,
      "Ġintestin": 6356,
      "abri": 6357,
      "auvres": 6358,
      "Ġhave": 6359,
      "Ġsubstance": 6360,
      "enci": 6361,
      "Ġventes": 6362,
      "ĠrÃ©volu": 6363,
      "Ġgast": 6364,
      "Ġrouges": 6365,
      "Ġcollaboration": 6366,
      "ĠmatÃ©riaux": 6367,
      "Ġretirer": 6368,
      "ush": 6369,
      "impact": 6370,
      "ĠinfÃ©rieure": 6371,
      "omÃ©t": 6372,
      "Ġbain": 6373,
      "ĠdÃ©tru": 6374,
      "tug": 6375,
      "ĠJames": 6376,
      "Ġinsuffis": 6377,
      "ĠbactÃ©ries": 6378,
      "Ġquin": 6379,
      "itants": 6380,
      "ĠParmi": 6381,
      "ĠreconnaÃ®tre": 6382,
      "Ġappareils": 6383,
      "orld": 6384,
      "ĠempÃªcher": 6385,
      "ĠdÃ©fendre": 6386,
      "Ġgamme": 6387,
      "tait": 6388,
      "illa": 6389,
      "Ġdue": 6390,
      "ĠVI": 6391,
      "Ġoptions": 6392,
      "Ġpersonnelle": 6393,
      "ĠamÃ©lior": 6394,
      "ĠSim": 6395,
      "ĠAff": 6396,
      "ĠbeautÃ©": 6397,
      "mise": 6398,
      "interpr": 6399,
      "ĠcritÃ¨res": 6400,
      "ouvoir": 6401,
      "Ġcomplications": 6402,
      "OU": 6403,
      "ĠcomÃ©di": 6404,
      "Ġaccueil": 6405,
      "ĠBou": 6406,
      "Ġmurs": 6407,
      "Ġminimum": 6408,
      "Ãīc": 6409,
      "Ġchap": 6410,
      "Ġcentres": 6411,
      "Inde": 6412,
      "ĠÃ©pouse": 6413,
      "ĠPol": 6414,
      "Ġclimat": 6415,
      "Ġdifficiles": 6416,
      "ĠmÃ©dical": 6417,
      "Ġtap": 6418,
      "ĠhÃ©ros": 6419,
      "Ã©gard": 6420,
      "Ġprofessionnelle": 6421,
      "Ġrappeler": 6422,
      "erte": 6423,
      "Ġacteurs": 6424,
      "imag": 6425,
      "ĠtravaillÃ©": 6426,
      "Ġemploi": 6427,
      "Se": 6428,
      "Ġgraph": 6429,
      "instal": 6430,
      "ĠartÃ©ri": 6431,
      "Ġconfort": 6432,
      "Ġdistribution": 6433,
      "seurs": 6434,
      "ĠÃ©valu": 6435,
      "ĠaugmentÃ©": 6436,
      "ĠprÃ©tend": 6437,
      "othÃ¨que": 6438,
      "Deux": 6439,
      "Ainsi": 6440,
      "estomac": 6441,
      "ally": 6442,
      "ĠrÃ©clam": 6443,
      "Ġpanne": 6444,
      "endi": 6445,
      "agÃ©s": 6446,
      "Ġpuissant": 6447,
      "ĠassociÃ©s": 6448,
      "ĠMag": 6449,
      "ĠcÃ©rÃ©m": 6450,
      "umin": 6451,
      "tein": 6452,
      "Ġchem": 6453,
      "Ġaver": 6454,
      "ĠOui": 6455,
      "Ġdois": 6456,
      "Ġtenue": 6457,
      "Ġaspects": 6458,
      "Ġdose": 6459,
      "Ġcible": 6460,
      "Ġauteur": 6461,
      "Ġbruit": 6462,
      "Ġlocales": 6463,
      "ĠfrÃ©quent": 6464,
      "Ġadmis": 6465,
      "ĠÃ©lu": 6466,
      "appareil": 6467,
      "Ġmange": 6468,
      "Ġphysiques": 6469,
      "olue": 6470,
      "Ġsubi": 6471,
      "Ġaffect": 6472,
      "mans": 6473,
      "Ġrh": 6474,
      "onnÃ©s": 6475,
      "garde": 6476,
      "ÙĬ": 6477,
      "ene": 6478,
      "ĠclÃ©s": 6479,
      "ervation": 6480,
      "terie": 6481,
      "Ġmoindre": 6482,
      "ga": 6483,
      "Ġtrouble": 6484,
      "opÃ©ra": 6485,
      "Ġjeun": 6486,
      "Ġcalme": 6487,
      "Ġtes": 6488,
      "onnaie": 6489,
      "Ġinvent": 6490,
      "Ġpauvres": 6491,
      "Ġgraisse": 6492,
      "gra": 6493,
      "Ġmontagne": 6494,
      "ĠsecrÃ©taire": 6495,
      "ĠFre": 6496,
      "ĠDÃ©c": 6497,
      "Ġproduisent": 6498,
      "Ġincroy": 6499,
      "Ġclasses": 6500,
      "Ġessentiel": 6501,
      "Ġprofiter": 6502,
      "tario": 6503,
      "ouveau": 6504,
      "Ġdisait": 6505,
      "Ġprisonn": 6506,
      "Ġtrouvait": 6507,
      "Ġremarqu": 6508,
      "ja": 6509,
      "ague": 6510,
      "Ġoubli": 6511,
      "ĠamÃ©ricaines": 6512,
      "Ġconserver": 6513,
      "ĠÃ©norme": 6514,
      "ko": 6515,
      "Ġcommercial": 6516,
      "Ġmys": 6517,
      "association": 6518,
      "ĠFlor": 6519,
      "Ã©riques": 6520,
      "ĠUnivers": 6521,
      "ĠproposÃ©": 6522,
      "Ġmatern": 6523,
      "ĠreprÃ©sentation": 6524,
      "bas": 6525,
      "Ġchirurgie": 6526,
      "yez": 6527,
      "Ã©quip": 6528,
      "Ġintit": 6529,
      "ĠPrÃ©": 6530,
      "Ã§ait": 6531,
      "Ġrencontrer": 6532,
      "iale": 6533,
      "ĠAli": 6534,
      "ĠAngel": 6535,
      "ĠparticipÃ©": 6536,
      "ries": 6537,
      "ommage": 6538,
      "Ġrup": 6539,
      "ĠintÃ©ressant": 6540,
      "ugi": 6541,
      "Ġcouverture": 6542,
      "ĠcoopÃ©ration": 6543,
      "oiles": 6544,
      "dium": 6545,
      "lois": 6546,
      "ismes": 6547,
      "itations": 6548,
      "ĠparallÃ¨": 6549,
      "Bon": 6550,
      "ĠdÃ©barr": 6551,
      "Ġpalais": 6552,
      "IB": 6553,
      "vice": 6554,
      "Ġpositif": 6555,
      "Ġlour": 6556,
      "meub": 6557,
      "ENT": 6558,
      "IL": 6559,
      "chauff": 6560,
      "Ġblan": 6561,
      "Ġdestruction": 6562,
      "Ġregr": 6563,
      "SE": 6564,
      "Ġconcurrence": 6565,
      "Ġchiffre": 6566,
      "RÃ©s": 6567,
      "ĠÃ©lectronique": 6568,
      "Ġtransfert": 6569,
      "Ġhausse": 6570,
      "ĠTra": 6571,
      "allÃ©e": 6572,
      "ĠJacques": 6573,
      "mant": 6574,
      "Ġfinanciers": 6575,
      "ĠÃ©lectriques": 6576,
      "grÃ©dients": 6577,
      "inn": 6578,
      "ĠJÃ©r": 6579,
      "ĠMes": 6580,
      "offre": 6581,
      "Ġplainte": 6582,
      "Ġalbum": 6583,
      "euros": 6584,
      "ĠYou": 6585,
      "Ġchances": 6586,
      "Ġphrase": 6587,
      "ĠBi": 6588,
      "cupe": 6589,
      "ustralie": 6590,
      "Ġsavez": 6591,
      "Ġamour": 6592,
      "Ġcomptes": 6593,
      "Ġactive": 6594,
      "Ã©galitÃ©": 6595,
      "ressÃ©": 6596,
      "ĠÃ©ti": 6597,
      "Ġperf": 6598,
      "ĠmarquÃ©": 6599,
      "ciens": 6600,
      "Ġrues": 6601,
      "ĠDou": 6602,
      "Ġmillion": 6603,
      "ĠWal": 6604,
      "Ġconstituent": 6605,
      "Ġmanip": 6606,
      "nis": 6607,
      "Ġemprun": 6608,
      "Ġexplos": 6609,
      "aises": 6610,
      "ĠDis": 6611,
      "Ġmarketing": 6612,
      "wa": 6613,
      "Ġpartenaires": 6614,
      "ĠarmÃ©es": 6615,
      "ĠpÃ¢te": 6616,
      "ĠSci": 6617,
      "Ġconcours": 6618,
      "ĠAll": 6619,
      "Ġcommencent": 6620,
      "ĠpÃ©": 6621,
      "ĠRoy": 6622,
      "Ġstric": 6623,
      "Ġallons": 6624,
      "Ġutiles": 6625,
      "Cl": 6626,
      "ĠnuclÃ©aire": 6627,
      "aurait": 6628,
      "MA": 6629,
      "atin": 6630,
      "Ġpoly": 6631,
      "Ġram": 6632,
      "Ġchamb": 6633,
      "archite": 6634,
      "ĠMaison": 6635,
      "ses": 6636,
      "agu": 6637,
      "modi": 6638,
      "Ġblancs": 6639,
      "ĠÃ©vÃ©nement": 6640,
      "Ġov": 6641,
      "intention": 6642,
      "ĠAut": 6643,
      "stac": 6644,
      "arry": 6645,
      "individ": 6646,
      "Espagne": 6647,
      "Ġtop": 6648,
      "idente": 6649,
      "Ġpes": 6650,
      "ĠIsraÃ«l": 6651,
      "lÃ©s": 6652,
      "Ġcra": 6653,
      "ĠsÃ©p": 6654,
      "Ġreine": 6655,
      "Aut": 6656,
      "xi": 6657,
      "ĠrÃ©sidence": 6658,
      "Ġbasse": 6659,
      "Ġlaboratoire": 6660,
      "Ġexemples": 6661,
      "Ġmultiples": 6662,
      "Ġartistes": 6663,
      "Ġremplacer": 6664,
      "Ġpartager": 6665,
      "Ð¾Ð": 6666,
      "ĠrÃ©di": 6667,
      "ĠMo": 6668,
      "ĠboÃ®te": 6669,
      "Ġtouche": 6670,
      "Ġpiste": 6671,
      "Ġcanadienne": 6672,
      "Ġel": 6673,
      "Åĵurs": 6674,
      "Ġchacune": 6675,
      "yroÃ¯": 6676,
      "Ġpire": 6677,
      "PS": 6678,
      "adresse": 6679,
      "Ġconstamment": 6680,
      "aste": 6681,
      "Ġapporter": 6682,
      "ĠtÃ¢ches": 6683,
      "installation": 6684,
      "ontre": 6685,
      "Ġimmobil": 6686,
      "Ã©vÃ©": 6687,
      "Ġconsommateurs": 6688,
      "bi": 6689,
      "Ã©pendance": 6690,
      "Ġsensation": 6691,
      "Ġsoupe": 6692,
      "Ġoption": 6693,
      "Ġvenait": 6694,
      "rices": 6695,
      "ĠCalif": 6696,
      "Ġtransmission": 6697,
      "Ġvouloir": 6698,
      "ĠÃ©videmment": 6699,
      "organ": 6700,
      "Ġmalade": 6701,
      "Ġdonnent": 6702,
      "Ġcomposants": 6703,
      "ĠprÃ©sents": 6704,
      "Ġefficaces": 6705,
      "Ġallemande": 6706,
      "ĠFacebook": 6707,
      "mm": 6708,
      "rÃ©g": 6709,
      "Ġsubs": 6710,
      "espoir": 6711,
      "isÃ©s": 6712,
      "itch": 6713,
      "Ġlongues": 6714,
      "Ġcrime": 6715,
      "ĠconfirmÃ©": 6716,
      "Ġnorme": 6717,
      "Ġajoute": 6718,
      "adame": 6719,
      "Ġperturb": 6720,
      "appelle": 6721,
      "Ġalimentation": 6722,
      "Ġom": 6723,
      "uns": 6724,
      "monie": 6725,
      "Ġveille": 6726,
      "âĢĿ.": 6727,
      "und": 6728,
      "Ġinternationales": 6729,
      "Ġaient": 6730,
      "Ġlourd": 6731,
      "Ġoise": 6732,
      "ĠdiffÃ©rences": 6733,
      "Ġarchite": 6734,
      "blier": 6735,
      "mage": 6736,
      "ties": 6737,
      "Ġadolesc": 6738,
      "ĠÃ©cole": 6739,
      "Ġviolation": 6740,
      "Ġlutter": 6741,
      "Ġspectacle": 6742,
      "Ã¤": 6743,
      "dition": 6744,
      "vite": 6745,
      "Ġrecommandations": 6746,
      "Ġrendez": 6747,
      "ĠvÃ©cu": 6748,
      "ulÃ©e": 6749,
      "Ġjournaliste": 6750,
      "acide": 6751,
      "ĠinfÃ©rieur": 6752,
      "ĠÃ¢gÃ©": 6753,
      "inv": 6754,
      "rick": 6755,
      "oubli": 6756,
      "Ġdisant": 6757,
      "!!": 6758,
      "uter": 6759,
      "reuve": 6760,
      "tile": 6761,
      "Ã©tant": 6762,
      "ĠVol": 6763,
      "Ġremer": 6764,
      "ĠfenÃªtre": 6765,
      "ologne": 6766,
      "Ġvacances": 6767,
      "ĠPor": 6768,
      "Ġdemandes": 6769,
      "ultan": 6770,
      "Ġallant": 6771,
      "Ġarme": 6772,
      "ĠCelui": 6773,
      "ĠdegrÃ©s": 6774,
      "Ġtenter": 6775,
      "charge": 6776,
      "inÃ©e": 6777,
      "enregistre": 6778,
      "Ġfir": 6779,
      "Ġmusculaire": 6780,
      "rue": 6781,
      "%.": 6782,
      "Ġdys": 6783,
      "anth": 6784,
      "intro": 6785,
      "ĠÂ°": 6786,
      "Ã´les": 6787,
      "Ġpuissent": 6788,
      "Ġmanifeste": 6789,
      "Ġbourge": 6790,
      "ĠNap": 6791,
      "Ġtraduction": 6792,
      "Ã©lectricitÃ©": 6793,
      "Ġpermettra": 6794,
      "Ġvoil": 6795,
      "Ġordonn": 6796,
      "Ġsemblait": 6797,
      "DÃ©": 6798,
      "Ġmourir": 6799,
      "Ġhier": 6800,
      "kh": 6801,
      "Ġgonf": 6802,
      "Ġinstallations": 6803,
      "Ġdil": 6804,
      "ĠsÃ©jour": 6805,
      "Ġparois": 6806,
      "ĠthÃ¨me": 6807,
      "ĠprÃ©sentent": 6808,
      "enfants": 6809,
      "ĠdÃ©fi": 6810,
      "arg": 6811,
      "Ġfonctionner": 6812,
      "Ġmodernes": 6813,
      "ated": 6814,
      "jection": 6815,
      "ĠconformÃ©ment": 6816,
      "ĠassociÃ©e": 6817,
      "Ġhttps": 6818,
      "Ġdette": 6819,
      "Ġappuy": 6820,
      "ĠdÃ©pression": 6821,
      "Ġdizaines": 6822,
      "ï¼Į": 6823,
      "ĠarmÃ©e": 6824,
      "Ġfrancs": 6825,
      "Ġobligatoire": 6826,
      "Ġlogement": 6827,
      "Ġmaux": 6828,
      "ologues": 6829,
      "Ġmg": 6830,
      "ĠJourn": 6831,
      "adis": 6832,
      "ĠgagnÃ©": 6833,
      "ĠrÃ¨gne": 6834,
      "Ġuns": 6835,
      "inement": 6836,
      "ocr": 6837,
      "Ġimpact": 6838,
      "Ġressembl": 6839,
      "Ġconclusion": 6840,
      "Ġsentiments": 6841,
      "Ġofficielle": 6842,
      "ends": 6843,
      "rup": 6844,
      "endroit": 6845,
      "Ġdurable": 6846,
      "ĠÃ©loi": 6847,
      "ĠpubliÃ©e": 6848,
      "Ġstandard": 6849,
      "ĠcÃ¢": 6850,
      "ĠSup": 6851,
      "miÃ¨res": 6852,
      "Ġnerveux": 6853,
      "CC": 6854,
      "ĠantÃ©ri": 6855,
      "Ġcoul": 6856,
      "cules": 6857,
      "Ġperformances": 6858,
      "investissement": 6859,
      "Ob": 6860,
      "Ġgre": 6861,
      "Ã©nie": 6862,
      "ĠeuropÃ©ens": 6863,
      "Ġvoici": 6864,
      "odifier": 6865,
      "Ġhi": 6866,
      "fiÃ©es": 6867,
      "Ġartifici": 6868,
      "ĠEntre": 6869,
      "Ġling": 6870,
      "citÃ©": 6871,
      "ĩa": 6872,
      "Ġtrim": 6873,
      "Ġavantage": 6874,
      "existe": 6875,
      "guÃ©": 6876,
      "Ġsusceptibles": 6877,
      "Ġoffrir": 6878,
      "ĠâĨĳ": 6879,
      "Ùĩ": 6880,
      "Ġquotidienne": 6881,
      "ĠAlexand": 6882,
      "Ġtromp": 6883,
      "ĠrÃ©vÃ¨le": 6884,
      "ĠbasÃ©": 6885,
      "Ã©roport": 6886,
      "Ġtentative": 6887,
      "ĠcrÃ¨me": 6888,
      "Ġvitamines": 6889,
      "ford": 6890,
      "Ġnotes": 6891,
      "ĠDani": 6892,
      "Ġnez": 6893,
      "Ġaccessi": 6894,
      "ĠprÃ©fÃ©rable": 6895,
      "inqui": 6896,
      "ĠPers": 6897,
      "Ġchinoise": 6898,
      "Ġcombinaison": 6899,
      "ĠDire": 6900,
      "ĠConf": 6901,
      "Ġinfluence": 6902,
      "ouff": 6903,
      "demn": 6904,
      "raction": 6905,
      "ĠaccusÃ©": 6906,
      "Ġsuppos": 6907,
      "Ġglace": 6908,
      "ĠdÃ©finir": 6909,
      "SA": 6910,
      "ĠallÃ©": 6911,
      "ĠMex": 6912,
      "Ã©cran": 6913,
      "ĠPeut": 6914,
      "ĠprÃ©al": 6915,
      "parole": 6916,
      "Ġpatron": 6917,
      "ĠdÃ©clare": 6918,
      "Ġdel": 6919,
      "Ġactifs": 6920,
      "Ġterri": 6921,
      "Ġsurn": 6922,
      "ĠPhilippe": 6923,
      "Ġfal": 6924,
      "ĠdÃ©cor": 6925,
      "Ġsilence": 6926,
      "Ġanc": 6927,
      "ĠprÃ©voit": 6928,
      "ĠVan": 6929,
      "illages": 6930,
      "DA": 6931,
      "Di": 6932,
      "Ġmodes": 6933,
      "Ġtrafic": 6934,
      "exemple": 6935,
      "ake": 6936,
      "Gr": 6937,
      "ĠartÃ©rielle": 6938,
      "Ġpy": 6939,
      "ennies": 6940,
      "Ġpress": 6941,
      "ĠthÃ©rapie": 6942,
      "acheter": 6943,
      "Ġpointe": 6944,
      "Ġsouverain": 6945,
      "feu": 6946,
      "tension": 6947,
      "Ġblog": 6948,
      "Ġore": 6949,
      "ĠrÃ©pondu": 6950,
      "ĠsoirÃ©e": 6951,
      "Ġprofondeur": 6952,
      "Ġofficiel": 6953,
      "ĠPat": 6954,
      "Ġtrente": 6955,
      "ĠprÃ©cip": 6956,
      "Ġtit": 6957,
      "licitÃ©": 6958,
      "outh": 6959,
      "ĠmÃ©dicale": 6960,
      "Ġsacri": 6961,
      "Ġmaire": 6962,
      "Ġabdomin": 6963,
      "ĠHol": 6964,
      "Ġath": 6965,
      "Ġcanal": 6966,
      "Ġmit": 6967,
      "ĠgÃ©nÃ©tique": 6968,
      "ĠrÃ©flexion": 6969,
      "ĠsuprÃªme": 6970,
      "Ġprobable": 6971,
      "ĠtentÃ©": 6972,
      "Ġgluc": 6973,
      "LA": 6974,
      "oscou": 6975,
      "ĠVille": 6976,
      "jus": 6977,
      "ĠPeu": 6978,
      "Ġkg": 6979,
      "ĠisraÃ©li": 6980,
      "oritaire": 6981,
      "ĠPort": 6982,
      "irer": 6983,
      "Ġlux": 6984,
      "ymph": 6985,
      "Ġgouvernements": 6986,
      "ĠconsidÃ©rer": 6987,
      "anmoins": 6988,
      "Ġreins": 6989,
      "Ġmeu": 6990,
      "ĠdÃ©cennies": 6991,
      "Ġer": 6992,
      "ilib": 6993,
      "Ġformule": 6994,
      "Ġtechnologies": 6995,
      "Ġparcours": 6996,
      "Ġserv": 6997,
      "Ġrig": 6998,
      "ĠFl": 6999,
      "Ġreprise": 7000,
      "ĠAmÃ©rique": 7001,
      "Ġleader": 7002,
      "ĠDom": 7003,
      "Ġcomplexes": 7004,
      "hal": 7005,
      "Ġcass": 7006,
      "Ã¨vres": 7007,
      "Ġpertes": 7008,
      "ĠrÃ©elle": 7009,
      "Ġpoitr": 7010,
      "Ġquels": 7011,
      "ĠThomas": 7012,
      "Ġsecondaire": 7013,
      "Ġcontiennent": 7014,
      "Ãªcher": 7015,
      "Ã©tudi": 7016,
      "allÃ©": 7017,
      "utin": 7018,
      "Ġrejoint": 7019,
      "ĠstÃ©": 7020,
      "assade": 7021,
      "anniques": 7022,
      "ĠItalie": 7023,
      "Ġarbres": 7024,
      "Ġexige": 7025,
      "Ġmeurtre": 7026,
      "plus": 7027,
      "Ã©criture": 7028,
      "lack": 7029,
      "ourt": 7030,
      "diens": 7031,
      "Ġbanques": 7032,
      "Ġrat": 7033,
      "Ãªque": 7034,
      "ĠDÃ¨s": 7035,
      "Ġcesse": 7036,
      "ĠnÃ©anmoins": 7037,
      "Ġressemble": 7038,
      "Ġpollu": 7039,
      "Ġnavires": 7040,
      "Ġol": 7041,
      "veiller": 7042,
      "Ġcatast": 7043,
      "Ġdir": 7044,
      "Ġpier": 7045,
      "Ġplage": 7046,
      "Ġsalaire": 7047,
      "quisition": 7048,
      "Jean": 7049,
      "ĠLigue": 7050,
      "ĠillÃ©g": 7051,
      "angle": 7052,
      "Ġtoil": 7053,
      "Ġfrag": 7054,
      "hÃ´tel": 7055,
      "acifique": 7056,
      "icat": 7057,
      "Ġmarques": 7058,
      "IsraÃ«l": 7059,
      "ĠJoseph": 7060,
      "Ġmoments": 7061,
      "Ġbattre": 7062,
      "FA": 7063,
      "ĠmenÃ©e": 7064,
      "Ġisol": 7065,
      "king": 7066,
      "ĠreprÃ©sentent": 7067,
      "ĠBas": 7068,
      "Ġargent": 7069,
      "Ġincap": 7070,
      "oureuse": 7071,
      "tiÃ¨me": 7072,
      "ĠÃ©mer": 7073,
      "Ġconnus": 7074,
      "ĠblessÃ©": 7075,
      "ĠTrans": 7076,
      "Ġconversation": 7077,
      "Ġatteints": 7078,
      "zz": 7079,
      "identitÃ©": 7080,
      "lits": 7081,
      "ĠlimitÃ©": 7082,
      "Ġrupture": 7083,
      "ĠWest": 7084,
      "Ġdirecte": 7085,
      "Ġmessages": 7086,
      "larg": 7087,
      "ONU": 7088,
      "Ġrenouvel": 7089,
      "ĠnÃ©gociations": 7090,
      "Ġimportance": 7091,
      "ĠespÃ¨ce": 7092,
      "ĠtÃ©moi": 7093,
      "ĠindÃ©pendant": 7094,
      "novation": 7095,
      "Ġdiffusion": 7096,
      "ornie": 7097,
      "Ġtranspar": 7098,
      "Ùĳ": 7099,
      "ĠâĢ¢": 7100,
      "...]": 7101,
      "arre": 7102,
      "ĠBur": 7103,
      "Ġcontent": 7104,
      "ĠsÃ©ance": 7105,
      "Histoire": 7106,
      "Ġfu": 7107,
      "itt": 7108,
      "oblig": 7109,
      "Ġintervention": 7110,
      "ĠdÃ©mocratique": 7111,
      "so": 7112,
      "Ġdynamique": 7113,
      "Ġguide": 7114,
      "intervention": 7115,
      "Ġspati": 7116,
      "Ġtransition": 7117,
      "ĠAmÃ©ricains": 7118,
      "Ġprenant": 7119,
      "Ġplastique": 7120,
      "Ġmention": 7121,
      "isez": 7122,
      "ĠÃ©pr": 7123,
      "auf": 7124,
      "Ġweek": 7125,
      "inture": 7126,
      "Ġquelles": 7127,
      "Ġrusses": 7128,
      "ĠarrÃªter": 7129,
      "ora": 7130,
      "Ġpourrez": 7131,
      "Institut": 7132,
      "ĠrefusÃ©": 7133,
      "pes": 7134,
      "ĠvÃ©tÃ©": 7135,
      "aujourd": 7136,
      "Ġsanguin": 7137,
      "umeur": 7138,
      "hiver": 7139,
      "col": 7140,
      "Ġnations": 7141,
      "Ġprovenant": 7142,
      "Ġchamps": 7143,
      "ancienne": 7144,
      "ĠorganisÃ©": 7145,
      "CI": 7146,
      "Ġsurprise": 7147,
      "Ġlaissant": 7148,
      "âĢ¦]": 7149,
      "ĠVotre": 7150,
      "Ġminute": 7151,
      "ĠblessÃ©s": 7152,
      "Ġinternes": 7153,
      "Ġpromotion": 7154,
      "ĠCorÃ©e": 7155,
      "ĠNational": 7156,
      "Ġpoitrine": 7157,
      "Ġdevi": 7158,
      "Ġpatrimoine": 7159,
      "Ġennemis": 7160,
      "ĠRos": 7161,
      "Ġ#": 7162,
      "Ġimpressionn": 7163,
      "istÃ©": 7164,
      "ĠMax": 7165,
      "Ġendomm": 7166,
      "Ġmentale": 7167,
      "chn": 7168,
      "ĠarrivÃ©e": 7169,
      "xe": 7170,
      "agrÃ©": 7171,
      "Ã¢me": 7172,
      "ĠLE": 7173,
      "agog": 7174,
      "Ã¨ses": 7175,
      "Ġsecours": 7176,
      "Ġfichiers": 7177,
      "Ġparis": 7178,
      "ĠcaractÃ©ristique": 7179,
      "ĠÃ©crire": 7180,
      "Ġbonheur": 7181,
      "comme": 7182,
      "Â´": 7183,
      "ĠdÃ©passe": 7184,
      "Ġwill": 7185,
      "ather": 7186,
      "Ġtourner": 7187,
      "Ġlav": 7188,
      "ao": 7189,
      "Ġdescription": 7190,
      "ĠadoptÃ©": 7191,
      "Ġmachines": 7192,
      "Ġrarement": 7193,
      "Ġtransformation": 7194,
      "ĠsÃ©rieux": 7195,
      "animal": 7196,
      "ĠLÃ©": 7197,
      "ĠJui": 7198,
      "Ġindividu": 7199,
      "chait": 7200,
      "Ġhuman": 7201,
      "aisser": 7202,
      "agissait": 7203,
      "ther": 7204,
      "ĠConstitution": 7205,
      "ĠgÃª": 7206,
      "ĠCeux": 7207,
      "ĠMoscou": 7208,
      "ĠfondÃ©e": 7209,
      "Ġremettre": 7210,
      "Ġchampionnat": 7211,
      "nam": 7212,
      "intestin": 7213,
      "Ġbu": 7214,
      "Ġauront": 7215,
      "Ġglyc": 7216,
      "ĠEr": 7217,
      "Ġdisque": 7218,
      "Ġagent": 7219,
      "bo": 7220,
      "trÃ©": 7221,
      "Ġfourni": 7222,
      "Ġcarbone": 7223,
      "istoires": 7224,
      "Ġdanse": 7225,
      "cin": 7226,
      "ĠtÃ©l": 7227,
      "adÃ©mie": 7228,
      "Ġmang": 7229,
      "iliation": 7230,
      "Ġsavait": 7231,
      "archie": 7232,
      "Ġchambres": 7233,
      "range": 7234,
      "Ġtemple": 7235,
      "Ġjeunesse": 7236,
      "ala": 7237,
      "Ġradic": 7238,
      "ĠformÃ©": 7239,
      "ĠÃ©tablir": 7240,
      "Ġcommiss": 7241,
      "ago": 7242,
      "Ø§ÙĦ": 7243,
      "Ġbro": 7244,
      "ĠprÃ©cision": 7245,
      "Ġralenti": 7246,
      "Ġprost": 7247,
      "Ġgarantie": 7248,
      "ĠmaÃ®trise": 7249,
      "Ġlecteur": 7250,
      "ĠIV": 7251,
      "ĠpublicitÃ©": 7252,
      "Ġcentr": 7253,
      "Ġhistoriques": 7254,
      "ME": 7255,
      "Ġnaturelles": 7256,
      "ĠdÃ©taill": 7257,
      "htt": 7258,
      "rants": 7259,
      "Ġner": 7260,
      "Ġjoie": 7261,
      "Ã©ritÃ©": 7262,
      "PrÃ©": 7263,
      "ĠlÃ©gÃ¨re": 7264,
      "Ġquart": 7265,
      "ĠSainte": 7266,
      "ĠColomb": 7267,
      "ĠXIXe": 7268,
      "Ġnette": 7269,
      "Ġrapporte": 7270,
      "Ġprescrit": 7271,
      "Ġouvrage": 7272,
      "uÃ©": 7273,
      "Ġtoucher": 7274,
      "Ġappartient": 7275,
      "Ġclass": 7276,
      "ĠpersonnalitÃ©": 7277,
      "ĠprÃ©sidentielle": 7278,
      "vÃ©n": 7279,
      "Ġcant": 7280,
      "ĠmenÃ©": 7281,
      "ĠpÃ©riodes": 7282,
      "utan": 7283,
      "Ġdisparu": 7284,
      "Ġnavire": 7285,
      "Ġpun": 7286,
      "ĠmaÃ®tres": 7287,
      "Ã©mor": 7288,
      "Ġbases": 7289,
      "ĠRÃ©g": 7290,
      "ĠquittÃ©": 7291,
      "çļ": 7292,
      "ĠÃ©change": 7293,
      "Ġrur": 7294,
      "Ġvoisin": 7295,
      "ĠÃ©lab": 7296,
      "Ġpoul": 7297,
      "Ġpierres": 7298,
      "ĠMonde": 7299,
      "Ġdim": 7300,
      "ĠdÃ©liv": 7301,
      "Ġconseiller": 7302,
      "alestin": 7303,
      "dicap": 7304,
      "ĠspÃ©ciale": 7305,
      "arrÃªter": 7306,
      "Ġapplications": 7307,
      "Ġmorale": 7308,
      "Ġobligations": 7309,
      "Ġpoudre": 7310,
      "CO": 7311,
      "liÃ©": 7312,
      "Ġfortes": 7313,
      "ĠÃ©pisode": 7314,
      "Ġraisonn": 7315,
      "ĠSÃ©nat": 7316,
      "rob": 7317,
      "Ġmajeure": 7318,
      "ft": 7319,
      "ĠLuc": 7320,
      "ĠHong": 7321,
      "Ġcrimes": 7322,
      "Ġhumaines": 7323,
      "ĠhÃ´tel": 7324,
      "Ġdiffus": 7325,
      "ĠAuc": 7326,
      "UN": 7327,
      "ĠSE": 7328,
      "Ã®tre": 7329,
      "Ġbateau": 7330,
      "ova": 7331,
      "Ġindisp": 7332,
      "Ġcapitaine": 7333,
      "cor": 7334,
      "ĠMas": 7335,
      "ĠfaÃ§": 7336,
      "ĠÃ©vidence": 7337,
      "Ġanne": 7338,
      "iment": 7339,
      "Ġfasc": 7340,
      "eront": 7341,
      "Ġchante": 7342,
      "Tous": 7343,
      "oivent": 7344,
      "äº": 7345,
      "çļĦ": 7346,
      "approche": 7347,
      "Ġinfections": 7348,
      "udence": 7349,
      "umul": 7350,
      "ian": 7351,
      "Ġforment": 7352,
      "ĠOs": 7353,
      "Ġdomes": 7354,
      "ĠsoulignÃ©": 7355,
      "ĠMark": 7356,
      "Ġexcellent": 7357,
      "ĠSociÃ©tÃ©": 7358,
      "ĠpensÃ©es": 7359,
      "Ġconduis": 7360,
      "Ġdoigts": 7361,
      "orient": 7362,
      "Ã¨dent": 7363,
      "Ġlimiter": 7364,
      "Ġoeuvre": 7365,
      "tiver": 7366,
      "arn": 7367,
      "Ġgel": 7368,
      "Ġfame": 7369,
      "han": 7370,
      "ĠessayÃ©": 7371,
      "ĠretrouvÃ©": 7372,
      "Ġappareil": 7373,
      "Ġerreurs": 7374,
      "Ġcyc": 7375,
      "idÃ©mie": 7376,
      "Ġdevaient": 7377,
      "Ġimporte": 7378,
      "Ġsyri": 7379,
      "ensive": 7380,
      "Ã©mique": 7381,
      "Ġtraduit": 7382,
      "Ġimplique": 7383,
      "Ġmettant": 7384,
      "Ġaper": 7385,
      "Ġconflits": 7386,
      "ĠâĤ¬": 7387,
      "Ġsolid": 7388,
      "Ġsombre": 7389,
      "agon": 7390,
      "insuline": 7391,
      "Ġsexuelles": 7392,
      "lim": 7393,
      "Â·": 7394,
      "aume": 7395,
      "iciens": 7396,
      "way": 7397,
      "Ġaurez": 7398,
      "olis": 7399,
      "Ġlentement": 7400,
      "Ġfle": 7401,
      "ĠRichard": 7402,
      "ĠCalifornie": 7403,
      "ling": 7404,
      "aro": 7405,
      "asp": 7406,
      "ĠrencontrÃ©": 7407,
      "Ġorganismes": 7408,
      "ctionnaire": 7409,
      "ĠrÃ©actions": 7410,
      "Ġsond": 7411,
      "ĠentrÃ©e": 7412,
      "Ġbiais": 7413,
      "AssemblÃ©e": 7414,
      "ĠBerlin": 7415,
      "Ġcontribuer": 7416,
      "ube": 7417,
      "Ġconcert": 7418,
      "Ġrepose": 7419,
      "aug": 7420,
      "ĠvidÃ©os": 7421,
      "Ġtac": 7422,
      "Ġprovis": 7423,
      "ĠprÃ©sentant": 7424,
      "ãĢĤ": 7425,
      "onnant": 7426,
      "ĠrÃ©fugi": 7427,
      "Ġaccro": 7428,
      "bilitÃ©s": 7429,
      "indic": 7430,
      "Ġliqu": 7431,
      "Ġcalories": 7432,
      "Ġsymbole": 7433,
      "Ġchaussures": 7434,
      "ĠStr": 7435,
      "genti": 7436,
      "ocy": 7437,
      "Ġlis": 7438,
      "ĠcollÃ¨gues": 7439,
      "Ġoptim": 7440,
      "ĠCanadiens": 7441,
      "ban": 7442,
      "ĠLos": 7443,
      "Ġpensent": 7444,
      "ĠÃ©missions": 7445,
      "Ġolymp": 7446,
      "Ġscand": 7447,
      "lerie": 7448,
      "Ġboule": 7449,
      "indÃ©pendance": 7450,
      "Ã©gal": 7451,
      "Ġvraie": 7452,
      "dio": 7453,
      "ĠdÃ©faite": 7454,
      "Ġrelative": 7455,
      "Ġmorceaux": 7456,
      "Lire": 7457,
      "iversaire": 7458,
      "van": 7459,
      "Ġdent": 7460,
      "ĠbasÃ©e": 7461,
      "Ġrencontres": 7462,
      "Ġchimiques": 7463,
      "ĠsÅĵur": 7464,
      "Ġpassion": 7465,
      "impÃ´t": 7466,
      "orges": 7467,
      "ĠentiÃ¨re": 7468,
      "Ġfoule": 7469,
      "Ġparag": 7470,
      "Ġdoux": 7471,
      "ĠGÃ©n": 7472,
      "biotiques": 7473,
      "hu": 7474,
      "umÃ©e": 7475,
      "Ġmajeur": 7476,
      "ĠÃ©trange": 7477,
      "Ġsain": 7478,
      "Ġvisible": 7479,
      "Ġsolide": 7480,
      "ouvrir": 7481,
      "Ġconfig": 7482,
      "Ġballe": 7483,
      "Ġpassionn": 7484,
      "Ġformat": 7485,
      "Ġiran": 7486,
      "ĠprofondÃ©ment": 7487,
      "ĠprÃ©co": 7488,
      "cidents": 7489,
      "Ġclimatique": 7490,
      "ĠenregistrÃ©": 7491,
      "ĠrÃ©forme": 7492,
      "Ġnaturellement": 7493,
      "Ġrenforce": 7494,
      "ted": 7495,
      "Ġprenez": 7496,
      "Ġauto": 7497,
      "Ġrefroi": 7498,
      "Ġadulte": 7499,
      "Ġench": 7500,
      "Ġpensez": 7501,
      "Ġboissons": 7502,
      "Ġmatchs": 7503,
      "ĠcatÃ©gories": 7504,
      "Ġvoc": 7505,
      "Ġofficiellement": 7506,
      "ases": 7507,
      "Ġfaudra": 7508,
      "Ġeth": 7509,
      "encontre": 7510,
      "ĠÃ©nergie": 7511,
      "Ġcroit": 7512,
      "Ġmonnaie": 7513,
      "ĠdÃ©di": 7514,
      "Ġinclus": 7515,
      "ĠintÃ©gr": 7516,
      "ink": 7517,
      "Ġbarre": 7518,
      "ĠMat": 7519,
      "ican": 7520,
      "Ġpomp": 7521,
      "Ġindiquer": 7522,
      "ĠdÃ©couvre": 7523,
      "DC": 7524,
      "henti": 7525,
      "Ġlatin": 7526,
      "ĠgravitÃ©": 7527,
      "ĠestimÃ©": 7528,
      "Pr": 7529,
      "Ġdorm": 7530,
      "Ġlyc": 7531,
      "ĠMur": 7532,
      "ĠAmer": 7533,
      "Ġvieil": 7534,
      "oristes": 7535,
      "ĠMalgrÃ©": 7536,
      "uner": 7537,
      "ĠdÃ©signe": 7538,
      "Ġpromen": 7539,
      "ovid": 7540,
      "ellent": 7541,
      "ĠÃ©toiles": 7542,
      "ĠcrÃ©Ã©e": 7543,
      "Ġsinon": 7544,
      "Ġenceinte": 7545,
      "deur": 7546,
      "effectu": 7547,
      "ghan": 7548,
      "Ġmagasin": 7549,
      "AU": 7550,
      "ĠrapportÃ©": 7551,
      "Ġproposer": 7552,
      "Ġmac": 7553,
      "ĠRE": 7554,
      "ordin": 7555,
      "olat": 7556,
      "Ġessais": 7557,
      "Ġnoirs": 7558,
      "Ġcanadien": 7559,
      "Ġhandicap": 7560,
      "Ġviolences": 7561,
      "Ġhasard": 7562,
      "Ġtch": 7563,
      "Ġremise": 7564,
      "ĠTwitter": 7565,
      "Ġhosp": 7566,
      "ĠÃ¢gÃ©es": 7567,
      "dex": 7568,
      "Ġcoin": 7569,
      "ĠacceptÃ©": 7570,
      "ĠfrontiÃ¨res": 7571,
      "Ġenvie": 7572,
      "ĠÃªtres": 7573,
      "Ġlicence": 7574,
      "aimer": 7575,
      "Ġmaintien": 7576,
      "Ġoccasion": 7577,
      "Ġvague": 7578,
      "amÃ©liorer": 7579,
      "kraine": 7580,
      "Ġpeint": 7581,
      "Ġrelatives": 7582,
      "Ġprimaire": 7583,
      "Ġvendeur": 7584,
      "agence": 7585,
      "Ġpommes": 7586,
      "enture": 7587,
      "Ġabou": 7588,
      "Ġcatholique": 7589,
      "cel": 7590,
      "Ġramen": 7591,
      "Ġautonom": 7592,
      "Ġdonnant": 7593,
      "ĠPourtant": 7594,
      "Ġml": 7595,
      "ĠrÃ©pert": 7596,
      "itage": 7597,
      "ĠJeux": 7598,
      "Ġmonter": 7599,
      "urie": 7600,
      "Ã©lo": 7601,
      "ĠÃ©nergÃ©": 7602,
      "estes": 7603,
      "asion": 7604,
      "annonce": 7605,
      "Ġscolaire": 7606,
      "Ġcircuit": 7607,
      "Ġclaire": 7608,
      "Ġgrav": 7609,
      "ĠunitÃ©": 7610,
      "ĠDan": 7611,
      "tue": 7612,
      "Ġinscrit": 7613,
      "Ġpic": 7614,
      "aure": 7615,
      "als": 7616,
      "Ġconvention": 7617,
      "ĠForm": 7618,
      "ĠThÃ©": 7619,
      "artiste": 7620,
      "ĠJos": 7621,
      "Ġcauser": 7622,
      "Ġindispens": 7623,
      "ĠSource": 7624,
      "obe": 7625,
      "Ġstatistiques": 7626,
      "Ġperspective": 7627,
      "):": 7628,
      "urait": 7629,
      "Ġdiscri": 7630,
      "ĠTrois": 7631,
      "ĠOp": 7632,
      "ouvernement": 7633,
      "azz": 7634,
      "seur": 7635,
      "mÃ©diaire": 7636,
      "lav": 7637,
      "ĠbÃ©t": 7638,
      "Ġtermine": 7639,
      "yb": 7640,
      "Ġtue": 7641,
      "ĠdÃ©lic": 7642,
      "ĠMaur": 7643,
      "Ãªle": 7644,
      "Ġobstac": 7645,
      "Ġtrouverez": 7646,
      "Ġdiagnosti": 7647,
      "ĠfÃ©c": 7648,
      "ĠtrÃ©s": 7649,
      "ĠnÃ©cessairement": 7650,
      "ĠrÃ©mun": 7651,
      "pas": 7652,
      "iger": 7653,
      "Ġplacer": 7654,
      "Bas": 7655,
      "ostÃ©": 7656,
      "cial": 7657,
      "Ġrecru": 7658,
      "ĠÃ©car": 7659,
      "Ġmontagnes": 7660,
      "tones": 7661,
      "hypoth": 7662,
      "Ġbap": 7663,
      "Ġressent": 7664,
      "ĠÃ®les": 7665,
      "Ġcourage": 7666,
      "Ġgraines": 7667,
      "Ġteneur": 7668,
      "Ġinternationaux": 7669,
      "Ġconstante": 7670,
      "Ġalg": 7671,
      "eurre": 7672,
      "Ġsecteurs": 7673,
      "erse": 7674,
      "ĠMay": 7675,
      "ĠBanque": 7676,
      "Ġdiscuter": 7677,
      "uxelles": 7678,
      "Ġcib": 7679,
      "Ġsaou": 7680,
      "Ġimmunitaire": 7681,
      "ĠÃ©tablissements": 7682,
      "endie": 7683,
      "Ġmix": 7684,
      "Ġrub": 7685,
      "ĠrÃ©duis": 7686,
      "ĠmÃ©canisme": 7687,
      "Ġdistrict": 7688,
      "ĠdÃ©cider": 7689,
      "Ġfatigue": 7690,
      "Ġdeb": 7691,
      "Ġdialogue": 7692,
      "ĠrÃ©cente": 7693,
      "ĠcomposÃ©e": 7694,
      "Ġtort": 7695,
      "Ġrempli": 7696,
      "PA": 7697,
      "fe": 7698,
      "peur": 7699,
      "yste": 7700,
      "Ġnaturels": 7701,
      "ulture": 7702,
      "Ġcombatt": 7703,
      "Ġchevaux": 7704,
      "Ġtonnes": 7705,
      "entrepr": 7706,
      "azon": 7707,
      "Ġinuti": 7708,
      "Ġconseill": 7709,
      "erves": 7710,
      "alem": 7711,
      "ĠdÃ©putÃ©s": 7712,
      "Ġcapables": 7713,
      "ĠprÃ©cisÃ©": 7714,
      "Ġvoisins": 7715,
      "ĠÃ©tend": 7716,
      "chestre": 7717,
      "ull": 7718,
      "ĠdÃ©roul": 7719,
      "Ġoublier": 7720,
      "Ġchaude": 7721,
      "ena": 7722,
      "ĠprivilÃ©g": 7723,
      "ĠCrÃ©": 7724,
      "Ġnationales": 7725,
      "nelle": 7726,
      "ĠRec": 7727,
      "Ġremarque": 7728,
      "Qui": 7729,
      "ĠapparaÃ®tre": 7730,
      "iki": 7731,
      "Ġtraditionnelle": 7732,
      "Ġhormon": 7733,
      "ĠscÃ©nario": 7734,
      "ĠBible": 7735,
      "truis": 7736,
      "ĠFÃ©dÃ©ration": 7737,
      "ĠHer": 7738,
      "Ġroutes": 7739,
      "Ġcourants": 7740,
      "ĠrÃ©cupÃ©rer": 7741,
      "Ġrecettes": 7742,
      "Ġvisiteurs": 7743,
      "Ġanciennes": 7744,
      "ĠLorsqu": 7745,
      "dou": 7746,
      "elli": 7747,
      "Ġespagnol": 7748,
      "Ġ[âĢ¦]": 7749,
      "Ġabond": 7750,
      "Ġblessure": 7751,
      "ĠconstatÃ©": 7752,
      "oilÃł": 7753,
      "Ġmagnifique": 7754,
      "OL": 7755,
      "Ġsavons": 7756,
      "ĠrÃ©ception": 7757,
      "ayez": 7758,
      "Ġremplir": 7759,
      "ĠdiplÃ´me": 7760,
      "azine": 7761,
      "Ġbilan": 7762,
      "Ġintense": 7763,
      "olÃ©on": 7764,
      "gÃ©rie": 7765,
      "Ġreligieuse": 7766,
      "quante": 7767,
      "Ġpositions": 7768,
      "TR": 7769,
      "Ġjuges": 7770,
      "Ġsavent": 7771,
      "Ġrichesse": 7772,
      "Ġfaiblesse": 7773,
      "wn": 7774,
      "Ġvul": 7775,
      "ĠMah": 7776,
      "Ġbassin": 7777,
      "Ã©patite": 7778,
      "Ġcontrats": 7779,
      "ĠAngleterre": 7780,
      "fort": 7781,
      "erme": 7782,
      "Ġsouligne": 7783,
      "ĠidÃ©al": 7784,
      "ĠBour": 7785,
      "Ġaccepter": 7786,
      "Ġinfluenc": 7787,
      "Ġprovinces": 7788,
      "fense": 7789,
      "Ġavocat": 7790,
      "Ġgraisses": 7791,
      "affir": 7792,
      "Ġmanifestation": 7793,
      "ĠHenri": 7794,
      "Ġpourront": 7795,
      "avion": 7796,
      "my": 7797,
      "Ġtours": 7798,
      "ple": 7799,
      "Ġsable": 7800,
      "ĠfraÃ®": 7801,
      "ĠsÃ©c": 7802,
      "Ġtari": 7803,
      "ĠingrÃ©dients": 7804,
      "ĠRed": 7805,
      "ĠsoviÃ©tique": 7806,
      "tise": 7807,
      "Ġcinqui": 7808,
      "Ġcivils": 7809,
      "Ġmusulmans": 7810,
      "Enfin": 7811,
      "Ġcommerciale": 7812,
      "Ġprit": 7813,
      "Ġcann": 7814,
      "Ġenqu": 7815,
      "ĠCE": 7816,
      "ommun": 7817,
      "Ġmilliard": 7818,
      "Ã©change": 7819,
      "Ġordinateur": 7820,
      "Ġfun": 7821,
      "Ġregret": 7822,
      "Ġdimension": 7823,
      "Ġplaque": 7824,
      "Ġinfection": 7825,
      "Ġbuts": 7826,
      "Ġrestauration": 7827,
      "Ġprofil": 7828,
      "ĠtÃ©moins": 7829,
      "mail": 7830,
      "Ġtoit": 7831,
      "Ġtrau": 7832,
      "tionnellement": 7833,
      "BA": 7834,
      "Ġcommandant": 7835,
      "ayant": 7836,
      "lÃ¨te": 7837,
      "ĠmÃ©dicaux": 7838,
      "Ġinstructions": 7839,
      "Che": 7840,
      "Ġcog": 7841,
      "Ġproduc": 7842,
      "Merci": 7843,
      "Pierre": 7844,
      "upp": 7845,
      "ĠVers": 7846,
      "Ġcercle": 7847,
      "Art": 7848,
      "Ġpourriez": 7849,
      "ĠWil": 7850,
      "Ġboute": 7851,
      "modifier": 7852,
      "Ġcellule": 7853,
      "Empire": 7854,
      "oussi": 7855,
      "Ġordres": 7856,
      "Ġmyth": 7857,
      "Ġcalculs": 7858,
      "Ġsanguins": 7859,
      "Ġflex": 7860,
      "ĠCertaines": 7861,
      "Ġrestri": 7862,
      "achet": 7863,
      "ductions": 7864,
      "Ġconclus": 7865,
      "ache": 7866,
      "ographiques": 7867,
      "ĠÃ©troi": 7868,
      "liques": 7869,
      "Ġcomprom": 7870,
      "IM": 7871,
      "dique": 7872,
      "ĠAh": 7873,
      "ĠÃ¢gÃ©s": 7874,
      "ĠfiÃ¨vre": 7875,
      "Ġjusti": 7876,
      "Ġautrement": 7877,
      "Ġsalles": 7878,
      "ĠcuillÃ¨re": 7879,
      "itre": 7880,
      "rions": 7881,
      "ĠMaintenant": 7882,
      "uation": 7883,
      "Ġya": 7884,
      "exception": 7885,
      "ĠÃītat": 7886,
      "Ġnat": 7887,
      "tÃ©n": 7888,
      "ĠPi": 7889,
      "ado": 7890,
      "ajouter": 7891,
      "Ġcalend": 7892,
      "habitude": 7893,
      "tume": 7894,
      "apport": 7895,
      "Ġboul": 7896,
      "vue": 7897,
      "Ġparticipe": 7898,
      "Ġautoch": 7899,
      "ĠUtilis": 7900,
      "Ġglobale": 7901,
      "ding": 7902,
      "Ġjambe": 7903,
      "Ġcliniques": 7904,
      "wood": 7905,
      "Ã©rateur": 7906,
      "Ġaidera": 7907,
      "ĠMoh": 7908,
      "Ġtranqu": 7909,
      "ertes": 7910,
      "Ġpape": 7911,
      "ĠprÃ©sentation": 7912,
      "Ġcouvert": 7913,
      "ĠdÃ©barrasser": 7914,
      "Bretagne": 7915,
      "Ġpilotes": 7916,
      "br": 7917,
      "Ġpersonnels": 7918,
      "Ġouvrir": 7919,
      "Ġrefuse": 7920,
      "Ġ*": 7921,
      "ico": 7922,
      "Ġfroide": 7923,
      "Ġarabe": 7924,
      "Ġfe": 7925,
      "Ġrot": 7926,
      "tionnaires": 7927,
      "ĠrÃ©fÃ©r": 7928,
      "Ġapprend": 7929,
      "ĠÃ©motions": 7930,
      "ataires": 7931,
      "terr": 7932,
      "ĠdÃ©ploy": 7933,
      "Ġislamique": 7934,
      "Ġtire": 7935,
      "rimÃ©e": 7936,
      "ĠBill": 7937,
      "atie": 7938,
      "ĠAv": 7939,
      "opinion": 7940,
      "Ġjournalistes": 7941,
      "ĠpossÃ©d": 7942,
      "ĠsoupÃ§": 7943,
      "aÃ©roport": 7944,
      "Ġobtient": 7945,
      "agriculture": 7946,
      "Ġcell": 7947,
      "Ġsexuels": 7948,
      "pin": 7949,
      "pel": 7950,
      "quants": 7951,
      "itz": 7952,
      "Ġvig": 7953,
      "mond": 7954,
      "ĠengagÃ©": 7955,
      "ĠchrÃ©tiens": 7956,
      "ocrates": 7957,
      ".[": 7958,
      "istique": 7959,
      "Ġplong": 7960,
      "mann": 7961,
      "veurs": 7962,
      "ulsion": 7963,
      "ĠprÃ©vue": 7964,
      "Ġmettent": 7965,
      "Ġracines": 7966,
      "raison": 7967,
      "Ġcoc": 7968,
      "ĠÃ©tats": 7969,
      "Ġagir": 7970,
      "Ġmodern": 7971,
      "Ġchampign": 7972,
      "Ġsignificative": 7973,
      "ĠpauvretÃ©": 7974,
      "Ġpostes": 7975,
      "ĠCommun": 7976,
      "Ã©chapp": 7977,
      "Ġsculp": 7978,
      "ĠRog": 7979,
      "ices": 7980,
      "Ġdr": 7981,
      "ĠToutes": 7982,
      "Ġvisiter": 7983,
      "ĠsÃ©d": 7984,
      "ĠprÃªte": 7985,
      "uivre": 7986,
      "avi": 7987,
      "Ġfibres": 7988,
      "Ġopportun": 7989,
      "ams": 7990,
      "Ġlaissez": 7991,
      "cts": 7992,
      "ĠappelÃ©s": 7993,
      "Ġdestination": 7994,
      "ĠrÃ©cip": 7995,
      "Ġprocureur": 7996,
      "ĠdÃ©placer": 7997,
      "ĠcinquiÃ¨me": 7998,
      "El": 7999,
      "ĠdÃ©ta": 8000,
      "ottes": 8001,
      "Ġsanctions": 8002,
      "Ġpoissons": 8003,
      "Ġgagne": 8004,
      "Ã¢t": 8005,
      "quette": 8006,
      "ĠEss": 8007,
      "ĠdirigÃ©": 8008,
      "Ġtransformer": 8009,
      "Ġduc": 8010,
      "Ġvieille": 8011,
      "hip": 8012,
      "utes": 8013,
      "ĠMel": 8014,
      "ĠprÃ©ju": 8015,
      "ĠÃ©gard": 8016,
      "Ġfeuille": 8017,
      "ussitÃ´t": 8018,
      "ĠcÃ©rÃ©monie": 8019,
      "ĠBlack": 8020,
      "amÃ©lioration": 8021,
      "Ġbeurre": 8022,
      "ganisation": 8023,
      "Ġportent": 8024,
      "etnam": 8025,
      "Ġcoupable": 8026,
      "tan": 8027,
      "ĠnÃ©e": 8028,
      "Ġration": 8029,
      "Ġarts": 8030,
      "Ġassociation": 8031,
      "ĠVe": 8032,
      "oÃ¯des": 8033,
      "pÃ©": 8034,
      "Ġfans": 8035,
      "Ġrepris": 8036,
      "ĠtraitÃ©s": 8037,
      "liance": 8038,
      "Ġtalent": 8039,
      "cia": 8040,
      "Ġmerveille": 8041,
      "Ġidentifier": 8042,
      "table": 8043,
      "Ġcultures": 8044,
      "Ġconnexion": 8045,
      "Notre": 8046,
      "Ġvan": 8047,
      "Ġrecev": 8048,
      "Ġlogiciel": 8049,
      "Ġcord": 8050,
      "ortÃ©e": 8051,
      "ĠJo": 8052,
      "tilitÃ©": 8053,
      "Ġterritoires": 8054,
      "ĠprÃ©cÃ©dente": 8055,
      "Ġdoctr": 8056,
      "ygÃ¨ne": 8057,
      "alisÃ©es": 8058,
      "Ġvom": 8059,
      "ĠdÃ©riv": 8060,
      "ota": 8061,
      "Ġpratiquement": 8062,
      "Ġretourner": 8063,
      "ĠNicolas": 8064,
      "Alex": 8065,
      "Ġfranch": 8066,
      "Ã©anmoins": 8067,
      "Ġmarchandises": 8068,
      "Ġtom": 8069,
      "ĠfaÃ§ons": 8070,
      "Inter": 8071,
      "Ġcommuniquer": 8072,
      "Ġcomportements": 8073,
      "quemment": 8074,
      "ĠfondÃ©": 8075,
      "ĠeffectuÃ©e": 8076,
      "Ġcommerciales": 8077,
      "ĠCongrÃ¨s": 8078,
      "Ã¨ques": 8079,
      "Ġannon": 8080,
      "Ġpromouvoir": 8081,
      "ĠBruxelles": 8082,
      "Ġeffectivement": 8083,
      "ĠimpÃ©ri": 8084,
      "ĠassurÃ©": 8085,
      "Ġparticuliers": 8086,
      "Ġinternet": 8087,
      "Ġenj": 8088,
      "Ġsupprimer": 8089,
      "tenez": 8090,
      "Ġdisparition": 8091,
      "ĠmÃ¨ne": 8092,
      "ĠtirÃ©": 8093,
      "ĠdÃ©fend": 8094,
      "iterran": 8095,
      "ĠTrib": 8096,
      "OC": 8097,
      "ĠlÃ¢": 8098,
      "aule": 8099,
      "Ġgang": 8100,
      "agnies": 8101,
      "ĠGar": 8102,
      "Ġcharges": 8103,
      "ĠAngeles": 8104,
      "ĠvallÃ©e": 8105,
      "ĠSous": 8106,
      "ĠStre": 8107,
      "Ġyour": 8108,
      "Ġremarquer": 8109,
      "ny": 8110,
      "Ġventre": 8111,
      "ĠrÃ©putation": 8112,
      "ĠemployÃ©": 8113,
      "hommes": 8114,
      "isÃ©es": 8115,
      "Ġfixe": 8116,
      "cevoir": 8117,
      "olisme": 8118,
      "oncÃ©e": 8119,
      "ĠdÃ©sagrÃ©": 8120,
      "Ġmuque": 8121,
      "ĠrÃ©duite": 8122,
      "Sa": 8123,
      "Ġincon": 8124,
      "ĠquantitÃ©s": 8125,
      "ĠrÃ©cep": 8126,
      "Ġhui": 8127,
      "ĠNor": 8128,
      "ĠmÃ©tÃ©": 8129,
      "ĠadÃ©qu": 8130,
      "Ġsalon": 8131,
      "key": 8132,
      "Ġartistique": 8133,
      "Ġaffecte": 8134,
      "mosphÃ¨re": 8135,
      "comp": 8136,
      "tiles": 8137,
      "Ġfleur": 8138,
      "utilisateur": 8139,
      "Ġfruit": 8140,
      "Ġsurviv": 8141,
      "Ġnormalement": 8142,
      "igration": 8143,
      "Ã©mission": 8144,
      "Ġcombats": 8145,
      "Ġinstrument": 8146,
      "estÃ©rol": 8147,
      "Ġcouper": 8148,
      "atrices": 8149,
      "Ġvirtu": 8150,
      "ĠpossibilitÃ©s": 8151,
      "Ġdouze": 8152,
      "Toute": 8153,
      "Ġsolaire": 8154,
      "ĠÃ©dition": 8155,
      "riÃ¨res": 8156,
      "aval": 8157,
      "anglais": 8158,
      "Ġparfait": 8159,
      "Ġtrimestre": 8160,
      "fl": 8161,
      "seu": 8162,
      "ouc": 8163,
      "Ġpersonnelles": 8164,
      "ĠÃ©volu": 8165,
      "Ġsuperfici": 8166,
      "Ġsortes": 8167,
      "Ġdessous": 8168,
      "Aujourd": 8169,
      "Ġleaders": 8170,
      "ĠsystÃ©matique": 8171,
      "Ġdispositif": 8172,
      "aband": 8173,
      "Chaque": 8174,
      "ĠÃ©clair": 8175,
      "Ġinvestissements": 8176,
      "ĠInternational": 8177,
      "ĠlÃ©sions": 8178,
      "Ġsourire": 8179,
      "onfort": 8180,
      "Ġflu": 8181,
      "ĠdÃ©place": 8182,
      "qua": 8183,
      "ĠLo": 8184,
      "amine": 8185,
      "ader": 8186,
      "ĠeuropÃ©ennes": 8187,
      ".âĢĿ": 8188,
      "ĠqualitÃ©s": 8189,
      "ĠDem": 8190,
      "ĠPD": 8191,
      "Ġplas": 8192,
      "ĠrÃ©gimes": 8193,
      "Ġadministr": 8194,
      "ĠgarÃ§ons": 8195,
      "ĠÃ©tudier": 8196,
      "Ġwhich": 8197,
      "ĠmÃ©rite": 8198,
      "core": 8199,
      "Ġportrait": 8200,
      "Asie": 8201,
      "Ġgorge": 8202,
      "Certains": 8203,
      "ĠTom": 8204,
      "Ġfau": 8205,
      "aya": 8206,
      "Ġfinit": 8207,
      "ĠsÃ©paration": 8208,
      "Ġsitue": 8209,
      "ensÃ©": 8210,
      "ĠGra": 8211,
      "ĠdÃ©clarations": 8212,
      "Ġcalci": 8213,
      "ĠdÃ©rou": 8214,
      "ĠSar": 8215,
      "Ġlinguis": 8216,
      "litÃ©": 8217,
      "ĠperÃ§": 8218,
      "Ġpossession": 8219,
      "Ġpourcent": 8220,
      "IG": 8221,
      "Ø±": 8222,
      "ĠRÃ©volution": 8223,
      "Ġtravaillent": 8224,
      "ĠdÃ©pÃ´t": 8225,
      "Ġcombattre": 8226,
      "ĠcompÃ©tence": 8227,
      "ĠCovid": 8228,
      "ĠEm": 8229,
      "IIIe": 8230,
      "ĠBu": 8231,
      "Ġcompl": 8232,
      "Ġmarcher": 8233,
      "ĠBeaucoup": 8234,
      "Ġcontribue": 8235,
      "itaux": 8236,
      "Ġsoutenu": 8237,
      "Ġgouverneur": 8238,
      "ĠintÃ©rieur": 8239,
      "Ġcommerciaux": 8240,
      "ĠsÃ©ries": 8241,
      "Puis": 8242,
      "ualitÃ©": 8243,
      "Ġdite": 8244,
      "ower": 8245,
      "Ġguerres": 8246,
      "EL": 8247,
      "Oui": 8248,
      "ample": 8249,
      "ĠlÃ©gende": 8250,
      "prÃ©sident": 8251,
      "tition": 8252,
      "ditions": 8253,
      "ctÃ©": 8254,
      "usalem": 8255,
      "ographe": 8256,
      "horm": 8257,
      "Ġforts": 8258,
      "ols": 8259,
      "ĠapportÃ©": 8260,
      "issue": 8261,
      "Ã©dia": 8262,
      "ĠdiversitÃ©": 8263,
      "ĠAllem": 8264,
      "Du": 8265,
      "Ġmour": 8266,
      "ĠparamÃ¨tres": 8267,
      "Ġbelles": 8268,
      "osex": 8269,
      "Ġhoriz": 8270,
      "ĠTri": 8271,
      "ĠFaites": 8272,
      "Ġmonument": 8273,
      "Ġvertic": 8274,
      "ombien": 8275,
      "ĠfinanciÃ¨res": 8276,
      "Pas": 8277,
      "ouche": 8278,
      "Ġavanc": 8279,
      "ĠBay": 8280,
      "Ġattrib": 8281,
      "Ġaffi": 8282,
      "Ġcompagnies": 8283,
      "empereur": 8284,
      "ĠsÃ©vÃ¨re": 8285,
      "anteur": 8286,
      "Ġglucose": 8287,
      "entretien": 8288,
      "ep": 8289,
      "Ġdram": 8290,
      "dh": 8291,
      "oly": 8292,
      "ĠIm": 8293,
      "ĠBat": 8294,
      "Ġvaccin": 8295,
      "Ġfarine": 8296,
      "MÃªme": 8297,
      "Ġpaie": 8298,
      "ĠFrancis": 8299,
      "oni": 8300,
      "Ġlibres": 8301,
      "ansion": 8302,
      "ĠlÃ©ger": 8303,
      "uide": 8304,
      "obles": 8305,
      "Ġdites": 8306,
      "Ġengage": 8307,
      "ĠautorisÃ©": 8308,
      "ĠfÃ©dÃ©rale": 8309,
      "ula": 8310,
      "Ġeffort": 8311,
      "Ġfact": 8312,
      "Ġabus": 8313,
      "ĠtÃ©moin": 8314,
      "Ġavoc": 8315,
      "Ġremis": 8316,
      "bal": 8317,
      "yde": 8318,
      "alth": 8319,
      "ĠConc": 8320,
      "ĠBo": 8321,
      "Ġmore": 8322,
      "fient": 8323,
      "ĠÃ©vident": 8324,
      "ĠÃ©chantill": 8325,
      "ĠJuifs": 8326,
      "ccident": 8327,
      "mais": 8328,
      "ĠGrÃ¢ce": 8329,
      "Ġministres": 8330,
      "Ġmaximale": 8331,
      "ĠdÃ©truit": 8332,
      "ona": 8333,
      "Ġfinir": 8334,
      "Ġplaf": 8335,
      "ĠingÃ©n": 8336,
      "Ġcrises": 8337,
      "Ġincont": 8338,
      "Ġconstitution": 8339,
      "ĠRay": 8340,
      "Ġadresse": 8341,
      "Ġreconnaiss": 8342,
      "ĠprovoquÃ©": 8343,
      "utÃ©r": 8344,
      "Ġpneu": 8345,
      "ertension": 8346,
      "ould": 8347,
      "Ġfaim": 8348,
      "Association": 8349,
      "Ġmons": 8350,
      "Ġcontacter": 8351,
      "jac": 8352,
      "Ð»": 8353,
      "ĠdÃ©tention": 8354,
      "Ġcomport": 8355,
      "ĠÃ©cras": 8356,
      "accueil": 8357,
      "ĠAndre": 8358,
      "ĠrÃ©pondit": 8359,
      "hom": 8360,
      "Ġserez": 8361,
      "Ġamende": 8362,
      "ustral": 8363,
      "eries": 8364,
      "estÃ©": 8365,
      "Ġstar": 8366,
      "Ġlongs": 8367,
      "anal": 8368,
      "Ġhistoires": 8369,
      "Ġquitte": 8370,
      "Ġenvoyer": 8371,
      "Ġgliss": 8372,
      "Ġchimique": 8373,
      "oints": 8374,
      "Ġmusulman": 8375,
      "Ġoccas": 8376,
      "ivement": 8377,
      "ĠspÃ©cialistes": 8378,
      "Parmi": 8379,
      "Ġconducteur": 8380,
      "ĠBos": 8381,
      "ĠconsidÃ©rÃ©s": 8382,
      "ĠDaniel": 8383,
      "erman": 8384,
      "ffe": 8385,
      "zy": 8386,
      "Ġcorrespondant": 8387,
      "ĠmentionnÃ©": 8388,
      "ĠÃ©clat": 8389,
      "Ġhabituellement": 8390,
      "Ġmorceau": 8391,
      "alition": 8392,
      "ĠQuant": 8393,
      "Ã©lev": 8394,
      "ĠPologne": 8395,
      "Ġcouches": 8396,
      "Ġculte": 8397,
      "Ġqueue": 8398,
      "ygi": 8399,
      "Ġexercice": 8400,
      "ĠfrappÃ©": 8401,
      "IV": 8402,
      "ĠlimitÃ©e": 8403,
      "enregistrement": 8404,
      "ĠSant": 8405,
      "ĠachetÃ©": 8406,
      "Ġbeaux": 8407,
      "Ġsoulager": 8408,
      "Ġorth": 8409,
      "ĠMic": 8410,
      "Ġterroristes": 8411,
      "ennemi": 8412,
      "tÃ©rieures": 8413,
      "Ġinflammation": 8414,
      "agi": 8415,
      "gnÃ©": 8416,
      "ÙĪ": 8417,
      "ĠPR": 8418,
      "ĠQuelques": 8419,
      "ĠparaÃ®t": 8420,
      "accident": 8421,
      "ĠdÃ©fic": 8422,
      "TS": 8423,
      "quement": 8424,
      "Ġsubir": 8425,
      "ĠinstallÃ©": 8426,
      "Ġfuite": 8427,
      "ombres": 8428,
      "ĠPeter": 8429,
      "Ġcombus": 8430,
      "Ġdict": 8431,
      "ĠFrank": 8432,
      "Ġmagasins": 8433,
      "instant": 8434,
      "ĠdÃ©pass": 8435,
      "ĠdestinÃ©": 8436,
      "Ġoiseaux": 8437,
      "ĠpriÃ¨re": 8438,
      "ĠCH": 8439,
      "tÃ©rieurs": 8440,
      "Ġfaciliter": 8441,
      "ĠmÃ©r": 8442,
      "Ġmira": 8443,
      "ĠNouveau": 8444,
      "ĠParce": 8445,
      "Ġapprofon": 8446,
      "ĠEc": 8447,
      "Ġmotif": 8448,
      "Ġpoursuivi": 8449,
      "omie": 8450,
      "Ġcommuniste": 8451,
      "Ġrapides": 8452,
      "ĠvoilÃł": 8453,
      "ordinaire": 8454,
      "Ġsexuel": 8455,
      "ĠvÃ©rit": 8456,
      "Ġfromage": 8457,
      "Ġsph": 8458,
      "Ġexport": 8459,
      "Ġadress": 8460,
      "Ġduquel": 8461,
      "Ġvainque": 8462,
      "ĠBri": 8463,
      "Ġreproduction": 8464,
      "Modifier": 8465,
      "Ã©rez": 8466,
      "ĠStu": 8467,
      "Ã©conom": 8468,
      "titudes": 8469,
      "Ã©tablir": 8470,
      "xiÃ©tÃ©": 8471,
      "Ġvuln": 8472,
      "ĠRoi": 8473,
      "Ġcontrairement": 8474,
      "ĠconstituÃ©": 8475,
      "ĠprocÃ©der": 8476,
      "Ġexpression": 8477,
      "ĠthÃ¨se": 8478,
      "Ġrendent": 8479,
      "lÃ©es": 8480,
      "ĠprÃ©coce": 8481,
      "Ġdiscussions": 8482,
      "Ġjaponais": 8483,
      "ĠTV": 8484,
      "Ã©cou": 8485,
      "Ġmariti": 8486,
      "Ġcontribution": 8487,
      "Ġmotifs": 8488,
      "Ġforum": 8489,
      "Ġdiminuer": 8490,
      "ĠstratÃ©gique": 8491,
      "Ġfrappe": 8492,
      "lantique": 8493,
      "ĠmÃ©canismes": 8494,
      "Ġaccrue": 8495,
      "Ġsauve": 8496,
      "criptions": 8497,
      "Ġdimen": 8498,
      "telligence": 8499,
      "ID": 8500,
      "Ġintr": 8501,
      "ĠEspagne": 8502,
      "ĠJoe": 8503,
      "ĠJournal": 8504,
      "wan": 8505,
      "ĠsÃ¨che": 8506,
      "ĠdÃ©truire": 8507,
      "assembl": 8508,
      "ĠsensibilitÃ©": 8509,
      "ĠrÃ©cupÃ©ration": 8510,
      "ĠdÃ©clin": 8511,
      "Ã©drale": 8512,
      "ĠrÃ©alisateur": 8513,
      "Ġsuspect": 8514,
      "ĠdÃ©lib": 8515,
      "olet": 8516,
      "Ġtransports": 8517,
      "Ġagricole": 8518,
      "Ġmasque": 8519,
      "automne": 8520,
      "den": 8521,
      "Ġdesign": 8522,
      "Ġsanguine": 8523,
      "abilitÃ©s": 8524,
      "ĠintitulÃ©": 8525,
      "ralement": 8526,
      "urez": 8527,
      "ogÃ¨nes": 8528,
      "Ġaccue": 8529,
      "Ġsignification": 8530,
      "estres": 8531,
      "Ġinterview": 8532,
      "Ġcriti": 8533,
      "Ġgloire": 8534,
      "ĠGrÃ¨ce": 8535,
      "Ġmobile": 8536,
      "ĠÃ©pis": 8537,
      "Ġespaces": 8538,
      "ĠÃ©quival": 8539,
      "Ġoriginal": 8540,
      "Ġmoul": 8541,
      "chet": 8542,
      "Ġhommage": 8543,
      "Ġpassent": 8544,
      "Ġexposition": 8545,
      "Op": 8546,
      "ĠCity": 8547,
      "Ġfaisaient": 8548,
      "ĠdÃ©terminÃ©": 8549,
      "ĠNoÃ«l": 8550,
      "istiques": 8551,
      "Ġcontro": 8552,
      "ĠrÃ©guliÃ¨re": 8553,
      "Ġneige": 8554,
      "Ġapplic": 8555,
      "Ã©ber": 8556,
      "ĠdÃ©pendance": 8557,
      "Ġnationaux": 8558,
      "Ġdemanda": 8559,
      "Ġculturel": 8560,
      "ĠstratÃ©gies": 8561,
      "oeuvre": 8562,
      "ĠdÃ©chets": 8563,
      "ĠaidÃ©": 8564,
      "ĠÃ¨": 8565,
      "Ã³n": 8566,
      "Ã©cutif": 8567,
      "ĠAffaires": 8568,
      "ĠCN": 8569,
      "Ġintra": 8570,
      "ĠrÃ©chauff": 8571,
      "ĠAussi": 8572,
      "Ġ(Â«": 8573,
      "orÃ©e": 8574,
      "Ġsurmont": 8575,
      "fond": 8576,
      "Ġrepouss": 8577,
      "Ġatteinte": 8578,
      "Ġchansons": 8579,
      "AFP": 8580,
      "ĠBernard": 8581,
      "PR": 8582,
      "aib": 8583,
      "Ã©rons": 8584,
      "rane": 8585,
      "orial": 8586,
      "DÃ©c": 8587,
      "rlande": 8588,
      "ĠfrÃ©quemment": 8589,
      "Ġantic": 8590,
      "mber": 8591,
      "Ġvapeur": 8592,
      "Tra": 8593,
      "Voir": 8594,
      "ĠPet": 8595,
      "icien": 8596,
      "Ġactiv": 8597,
      "ĠÃ©trangÃ¨re": 8598,
      "Ġpartisans": 8599,
      "ĠMexique": 8600,
      "Ġconvi": 8601,
      "appui": 8602,
      "tisÃ©": 8603,
      "Ġpleinement": 8604,
      "Ãªtement": 8605,
      "ĠÃ©chelle": 8606,
      "Ġsurvie": 8607,
      "ĠextrÃ©m": 8608,
      "ĠmathÃ©matiques": 8609,
      "esc": 8610,
      "ĠOli": 8611,
      "Ġoffrent": 8612,
      "Ġsusceptible": 8613,
      "gar": 8614,
      "Ġparas": 8615,
      "rÃ©n": 8616,
      "ĠWorld": 8617,
      "ĠjugÃ©": 8618,
      "hou": 8619,
      "ä»": 8620,
      "Ġdissi": 8621,
      "fiez": 8622,
      "Ġmauvaises": 8623,
      "Ġdistingue": 8624,
      "mens": 8625,
      "ĠLab": 8626,
      "iden": 8627,
      "avocat": 8628,
      "ĠappropriÃ©": 8629,
      "Ġvesti": 8630,
      "Ġvenue": 8631,
      "ĠEuropÃ©": 8632,
      "Ġcourses": 8633,
      "Ġplaces": 8634,
      "Ġlomb": 8635,
      "ĠintÃ©rieure": 8636,
      "Ġfondateur": 8637,
      "Ġintensi": 8638,
      "ĠSeconde": 8639,
      "Ġroyale": 8640,
      "Ġmassac": 8641,
      "Ã©sitÃ©": 8642,
      "ĠnÃ©glig": 8643,
      "ĠindÃ©pendante": 8644,
      "Ġauxquels": 8645,
      "union": 8646,
      "lÃ¨vement": 8647,
      "Ġproducteurs": 8648,
      "ĠPlusieurs": 8649,
      "Non": 8650,
      "Ġrecette": 8651,
      "ĠÃ©valuer": 8652,
      "Ġfavorable": 8653,
      "espÃ¨re": 8654,
      "ĠConvention": 8655,
      "Ġgrammes": 8656,
      "Ġpisc": 8657,
      "Ġsages": 8658,
      "Ġdig": 8659,
      "Ġrechercher": 8660,
      "Com": 8661,
      "tige": 8662,
      "Ġprosp": 8663,
      "ĠÃ©crite": 8664,
      "Ġenvah": 8665,
      "ĠobservÃ©": 8666,
      "Ġitalien": 8667,
      "Ġexterne": 8668,
      "ĠPÃ¨re": 8669,
      "Ġpluie": 8670,
      "Ġmiel": 8671,
      "Ġdiscipline": 8672,
      "Bonjour": 8673,
      "hous": 8674,
      "Ġunif": 8675,
      "Ġreprend": 8676,
      "Ġsouffrant": 8677,
      "Ġloge": 8678,
      "onction": 8679,
      "ĠPC": 8680,
      "ĠÃ©tudiÃ©": 8681,
      "Ġmiss": 8682,
      "Ġavion": 8683,
      "Ġcorri": 8684,
      "Ġparticules": 8685,
      "ĠsymptÃ´me": 8686,
      "ĠcholestÃ©rol": 8687,
      "Ġnettoyage": 8688,
      "ĠMet": 8689,
      "ĠdÃ©cÃ©dÃ©": 8690,
      "indows": 8691,
      "Ġtenant": 8692,
      "agÃ©es": 8693,
      "uez": 8694,
      "applique": 8695,
      "Ġmalades": 8696,
      "Ġtransmis": 8697,
      "Ġappartenant": 8698,
      "ĠprocÃ©dÃ©": 8699,
      "amÃ©ric": 8700,
      "ank": 8701,
      "Ġnaz": 8702,
      "auts": 8703,
      "onymes": 8704,
      "Ġrestaurant": 8705,
      "Â©": 8706,
      "Ġpoussi": 8707,
      "ĠSin": 8708,
      "ĠrÃ©alise": 8709,
      "ĠChez": 8710,
      "Ġcutan": 8711,
      "Ã©rait": 8712,
      "uts": 8713,
      "formation": 8714,
      "Ġcultiv": 8715,
      "ĠÃ©conomie": 8716,
      "ĠNorm": 8717,
      "Ġprogression": 8718,
      "Ġlivraison": 8719,
      "ĠrÃ©vol": 8720,
      "ĠÃ©crits": 8721,
      "Ġmesurer": 8722,
      "charger": 8723,
      "ĠSil": 8724,
      "ople": 8725,
      "ĠcÃ©lÃ¨bres": 8726,
      "dict": 8727,
      "ĠSole": 8728,
      "ĠdÃ©putÃ©": 8729,
      "ĠgÃ©nÃ©rales": 8730,
      "olitique": 8731,
      "Ġcenti": 8732,
      "ĠJÃ©rusalem": 8733,
      "Ġhal": 8734,
      "Ġapporte": 8735,
      "Ġatteintes": 8736,
      "Ġinn": 8737,
      "ĠÅĵufs": 8738,
      "Ġstockage": 8739,
      "Ã©vÃ©nement": 8740,
      "kins": 8741,
      "Ġlymph": 8742,
      "row": 8743,
      "ĠgÃ©nÃ©raux": 8744,
      "Article": 8745,
      "obligation": 8746,
      "Cons": 8747,
      "ref": 8748,
      "Ġlever": 8749,
      "prits": 8750,
      "ĠBrit": 8751,
      "Ġpositive": 8752,
      "ĠconsidÃ©rable": 8753,
      "Ġcomparaison": 8754,
      "Ġavance": 8755,
      "Ġnutrition": 8756,
      "Ġennemi": 8757,
      "gen": 8758,
      "ttes": 8759,
      "ĠMÃ©d": 8760,
      "Ã©cart": 8761,
      "Ġsuivent": 8762,
      "Ã©lÃ¨ve": 8763,
      "Ġcorruption": 8764,
      "Ġcolle": 8765,
      "ipÃ©dia": 8766,
      "Ġoriginale": 8767,
      "med": 8768,
      "Ġbet": 8769,
      "deau": 8770,
      "ĠGold": 8771,
      "Ġamoureux": 8772,
      "Ġtourne": 8773,
      "ĠprÃ©vis": 8774,
      "Ġindiquent": 8775,
      "ĠsÃ»re": 8776,
      "ĠagrÃ©able": 8777,
      "Ġtroupe": 8778,
      "ĠÃ©volution": 8779,
      "Ġanglaise": 8780,
      "ĠdiplÃ´": 8781,
      "ĠremplacÃ©": 8782,
      "ĠaccompagnÃ©": 8783,
      "ĠlÃ©gislation": 8784,
      "AG": 8785,
      "Ġparagraphe": 8786,
      "log": 8787,
      "had": 8788,
      "Ã¨bres": 8789,
      "rÃ©d": 8790,
      "ĠÃ©changes": 8791,
      "ward": 8792,
      "illets": 8793,
      "ĠthyroÃ¯": 8794,
      "ĠrestÃ©": 8795,
      "ĠsituÃ©s": 8796,
      "ovas": 8797,
      "estion": 8798,
      "Ġsurvient": 8799,
      "accent": 8800,
      "unaux": 8801,
      "Ġsuccession": 8802,
      "Ġgarantir": 8803,
      "Ġfaudrait": 8804,
      "hÃ©patite": 8805,
      "yan": 8806,
      "tenues": 8807,
      "Ġincar": 8808,
      "Ġcuisson": 8809,
      "Ġamie": 8810,
      "ĠfÃ©minin": 8811,
      "ĠqualifiÃ©": 8812,
      "ĠSo": 8813,
      "Ġpassi": 8814,
      "ST": 8815,
      "Ã©par": 8816,
      "tar": 8817,
      "ãĥ": 8818,
      "urÃ©s": 8819,
      "mblement": 8820,
      "Ġcrist": 8821,
      "Ġautomatiquement": 8822,
      "ĠmÃ©canique": 8823,
      "Ġfuture": 8824,
      "Ġprouver": 8825,
      "ogne": 8826,
      "Ġtraces": 8827,
      "Ġconcentrer": 8828,
      "ĠNews": 8829,
      "Ġther": 8830,
      "Ã©curitÃ©": 8831,
      "individu": 8832,
      "Ġfamiliale": 8833,
      "mons": 8834,
      "SI": 8835,
      "histor": 8836,
      "ãĤ": 8837,
      "Ġbiologique": 8838,
      "Ġessayez": 8839,
      "ĠguÃ¨re": 8840,
      "Organisation": 8841,
      "Ġsensible": 8842,
      "cidence": 8843,
      "Ġvoient": 8844,
      "Ġpharmaci": 8845,
      "Ġprisonniers": 8846,
      "ize": 8847,
      "ĠtuÃ©s": 8848,
      "oria": 8849,
      "Ġdirigeant": 8850,
      "ury": 8851,
      "Ġrand": 8852,
      "Ġmoteurs": 8853,
      "appliquer": 8854,
      "ommÃ©": 8855,
      "tape": 8856,
      "ĠObama": 8857,
      "Ġcabinet": 8858,
      "ket": 8859,
      "Ã©rales": 8860,
      "Ġabsorb": 8861,
      "IRE": 8862,
      "Ġcous": 8863,
      "Ġgla": 8864,
      "Ġbarb": 8865,
      "onto": 8866,
      "Ġfusion": 8867,
      "atch": 8868,
      "ĠsÃ©cher": 8869,
      "Ġcollabor": 8870,
      "ĠprÃ©pare": 8871,
      "meuble": 8872,
      "Ġcommandement": 8873,
      "Ġpourcentage": 8874,
      "euillez": 8875,
      "ĠÃ©levÃ©es": 8876,
      "ĠQuelle": 8877,
      "Ġcontinuent": 8878,
      "Ġproduite": 8879,
      "Ġsimultan": 8880,
      "ĠsuggÃ¨re": 8881,
      "ĠPic": 8882,
      "Ġagressi": 8883,
      "Ġessai": 8884,
      "Ġaccords": 8885,
      "Ġdiminue": 8886,
      "ĠoccupÃ©": 8887,
      "Ġdevint": 8888,
      "utriche": 8889,
      "face": 8890,
      "mÃ©t": 8891,
      "ĠLui": 8892,
      "Ġcompose": 8893,
      "Ġpathologies": 8894,
      "ba": 8895,
      "Ġmarine": 8896,
      "Ġcoucher": 8897,
      "Ġtube": 8898,
      "entend": 8899,
      "ĠrÃ´les": 8900,
      "ĠcontribuÃ©": 8901,
      "intÃ©gration": 8902,
      "Ġadolescents": 8903,
      "ĠrÃ©fugiÃ©s": 8904,
      "cur": 8905,
      "Ġappliquer": 8906,
      "ierge": 8907,
      "Ġaffront": 8908,
      "Ġcouteau": 8909,
      "Ġordinaire": 8910,
      "Ġinvestisseurs": 8911,
      "Ġconsultation": 8912,
      "ĠinvitÃ©s": 8913,
      "ĠØ§ÙĦ": 8914,
      "ĠdÃ©placement": 8915,
      "Ġcivilisation": 8916,
      "Ã±": 8917,
      "orp": 8918,
      "ato": 8919,
      "OP": 8920,
      "ĠmystÃ©ri": 8921,
      "ĠlÃ¨vres": 8922,
      "ĠtouchÃ©": 8923,
      "Ġ\",": 8924,
      "Ġbol": 8925,
      "Ġscr": 8926,
      "ĠNet": 8927,
      "ĠstabilitÃ©": 8928,
      "Ġbouton": 8929,
      "Ġballon": 8930,
      "Ġsatel": 8931,
      "apprÃ©": 8932,
      "Ġassociations": 8933,
      "erÃ§": 8934,
      "Ġrose": 8935,
      "Ġconstruite": 8936,
      "Ġdrogue": 8937,
      "ĠfranÃ§aises": 8938,
      "ĠaimÃ©": 8939,
      "heim": 8940,
      "Ġattendant": 8941,
      "ĠNapolÃ©on": 8942,
      "ĠrÃ©serves": 8943,
      "ĠmontÃ©e": 8944,
      "Ġacides": 8945,
      "ciation": 8946,
      "Ġdebout": 8947,
      "ular": 8948,
      "empÃªcher": 8949,
      "ĠreprÃ©senter": 8950,
      "Ġcopie": 8951,
      "vet": 8952,
      "Ġmous": 8953,
      "ĠSantÃ©": 8954,
      "oxe": 8955,
      "Ġbouill": 8956,
      "Ġcuir": 8957,
      "engagement": 8958,
      "interprÃ©tation": 8959,
      "ĠcÃ©rÃ©": 8960,
      "Ġvillages": 8961,
      "Ġgenti": 8962,
      "Ġvenus": 8963,
      "Ġdrame": 8964,
      "uls": 8965,
      "ĠBarc": 8966,
      "ĠÃ©tablissement": 8967,
      "Ġterminer": 8968,
      "Ġhabitudes": 8969,
      "ĠbibliothÃ¨que": 8970,
      "Eglise": 8971,
      "ainement": 8972,
      "Ġvoyez": 8973,
      "Ġefficacement": 8974,
      "Ġexclusivement": 8975,
      "rabie": 8976,
      "ĠTex": 8977,
      "Ġdevrez": 8978,
      "Ġplats": 8979,
      "Ġconservation": 8980,
      "ii": 8981,
      "Ã¨des": 8982,
      "ĠspÃ©ciaux": 8983,
      "Ġsuccessi": 8984,
      "Ġconclusions": 8985,
      "Ã¨vement": 8986,
      "Ġengagement": 8987,
      "Ġfortune": 8988,
      "Ġpeintre": 8989,
      "ĠpÃ©riph": 8990,
      "ĠÃ©tranger": 8991,
      "Ġintroduit": 8992,
      "Ġbranches": 8993,
      "ĠEli": 8994,
      "ĠRi": 8995,
      "ĠParfois": 8996,
      "ĠInde": 8997,
      "Ġdevenus": 8998,
      "Ġmutu": 8999,
      "Ġplateau": 9000,
      "ĠdiamÃ¨tre": 9001,
      "Ġbourgeois": 9002,
      "quin": 9003,
      "erson": 9004,
      "emplacement": 9005,
      "Ġimmense": 9006,
      "Ġreligieuses": 9007,
      "ĠVir": 9008,
      "onnements": 9009,
      "ĠprÃ©sidence": 9010,
      "venus": 9011,
      "Ġmenstru": 9012,
      "Ġenvisage": 9013,
      "Ġperfection": 9014,
      "ĠIt": 9015,
      "Ġsoutient": 9016,
      "Ġcompren": 9017,
      "ĠdÃ©mons": 9018,
      "Ġcouvrir": 9019,
      "Ġroul": 9020,
      "Ġgend": 9021,
      "abeth": 9022,
      "ĠscÃ¨nes": 9023,
      "ĠGh": 9024,
      "ĠrÃ©sist": 9025,
      "Ġrespectivement": 9026,
      "Ġdimensions": 9027,
      "ĠdÃ®": 9028,
      "ĠrelÃ¨ve": 9029,
      "ĠMonsieur": 9030,
      "cieuse": 9031,
      "Ġbulle": 9032,
      "introduction": 9033,
      "ĠmÃ©tier": 9034,
      "Ġofficiers": 9035,
      "Ġtribunaux": 9036,
      "rairement": 9037,
      "ito": 9038,
      "ĠgÃ©nie": 9039,
      "Ġsalut": 9040,
      "Ġirrit": 9041,
      "Ġquartiers": 9042,
      "ĠrÃ©sumÃ©": 9043,
      "ĠdÃ©buts": 9044,
      "Ġfier": 9045,
      "Entre": 9046,
      "ĠprÃ©sentes": 9047,
      "Ġbureaux": 9048,
      "Ġcalendrier": 9049,
      "roc": 9050,
      "Ġfavoriser": 9051,
      "uie": 9052,
      "Ġtrajet": 9053,
      "Ġantibiotiques": 9054,
      "Ġdiriger": 9055,
      "ĠsupÃ©rieures": 9056,
      "Ġindustrielle": 9057,
      "ĠdÃ©ter": 9058,
      "Ġseigneur": 9059,
      "opt": 9060,
      "Ġfoss": 9061,
      "ĠÃ©duc": 9062,
      "Ġpaysage": 9063,
      "Ġsouffre": 9064,
      "Ġrati": 9065,
      "Ġbili": 9066,
      "lons": 9067,
      "oton": 9068,
      "ĠWikipÃ©dia": 9069,
      "Comp": 9070,
      "name": 9071,
      "Ġcuire": 9072,
      "Ġfestival": 9073,
      "cesseur": 9074,
      "Me": 9075,
      "ocu": 9076,
      "issons": 9077,
      "Ġriz": 9078,
      "visionnement": 9079,
      "Ġrentrer": 9080,
      "ĠET": 9081,
      "lon": 9082,
      "ĠEsp": 9083,
      "lises": 9084,
      "irs": 9085,
      "rÃ©tion": 9086,
      "miner": 9087,
      "engage": 9088,
      "Ġneutr": 9089,
      "Ġanalyses": 9090,
      "ĠalliÃ©s": 9091,
[...]
